die 42842
und 37597
der 31902
t 28526
en 27902
en, 26752
es 25970
in 24530
das 22489
en. 22318
zu 21789
, 21696
ist 21548
t@@ 21162
er 21127
er@@ 20269
k@@ 20256
ich 19374
. 19289
wir 18486
den 18192
ten 17183
S@@ 16848
te 16367
f@@ 16313
en@@ 16175
t, 15565
ein 15462
eine 15406
K@@ 15251
Und 15016
l@@ 14882
sie 14844
Sie 14638
von 14558
n@@ 14532
z@@ 14495
M@@ 13750
dass 13663
st@@ 13497
D@@ 13240
e 13234
sch@@ 12961
an@@ 12929
t. 12726
s@@ 12701
ver@@ 12464
B@@ 12361
e, 11732
nicht 11671
d@@ 11537
g@@ 11064
mit 10839
ge@@ 10678
L@@ 10521
m@@ 10495
F@@ 10399
H@@ 10360
auf 10308
ch@@ 10294
W@@ 10280
T@@ 10092
u@@ 10059
Ich 9856
b@@ 9730
ung 9692
r@@ 9648
wie 9559
be@@ 9234
h@@ 9131
um 9048
für 8930
sich 8751
al@@ 8556
-@@ 8426
"@@ 8398
in@@ 8330
s 8323
P@@ 8073
g 7941
ä@@ 7933
man 7931
ein@@ 7816
N@@ 7763
an 7750
o@@ 7707
dem 7652
als 7601
einen 7562
i@@ 7538
au@@ 7507
Das 7402
R@@ 7207
ar@@ 7045
el@@ 7004
m 6956
un@@ 6938
was 6918
et@@ 6890
Es 6797
so 6783
G@@ 6759
gen@@ 6701
e. 6592
ent@@ 6590
re@@ 6526
Sch@@ 6490
ei@@ 6397
ü@@ 6350
li@@ 6338
at@@ 6307
lich 6274
sind 6271
e@@ 6161
A@@ 6159
diese 6136
des 6044
or@@ 5949
w@@ 5913
es@@ 5910
: 5896
im 5887
wenn 5821
haben 5812
a@@ 5769
E@@ 5686
ri@@ 5664
Wir 5635
zu@@ 5601
war 5507
ges@@ 5491
a 5487
ö@@ 5448
p@@ 5399
ag@@ 5343
Ver@@ 5330
einer 5295
über 5270
ier@@ 5226
? 5168
ab@@ 5098
aus@@ 5086
um@@ 5078
gen 5000
Z@@ 4950
di@@ 4930
am@@ 4873
aus 4835
uns 4821
l 4802
auf@@ 4782
it@@ 4776
einem 4749
de 4740
eh@@ 4705
on@@ 4703
em@@ 4671
ig@@ 4641
-- 4615
sp@@ 4571
oder 4569
is@@ 4569
der@@ 4521
ra@@ 4477
wei@@ 4400
kl@@ 4395
ter 4394
sen 4353
Aber 4341
le@@ 4300
Die 4299
aber 4297
O@@ 4292
Er@@ 4287
V@@ 4284
St@@ 4250
te, 4213
auch 4207
n 4114
sehr 4073
ist, 4066
J@@ 4063
ß@@ 4054
C@@ 4046
An@@ 3988
ch 3916
ur@@ 3915
ut@@ 3914
hier 3896
all@@ 3874
ol@@ 3855
ti@@ 3846
j@@ 3839
bes@@ 3810
nur 3788
and 3750
ro@@ 3730
st 3722
ern@@ 3721
dann 3603
den@@ 3597
– 3589
- 3571
ung@@ 3555
sag@@ 3535
ten, 3478
hat 3472
än@@ 3432
il@@ 3418
her@@ 3399
tr@@ 3397
I@@ 3393
In@@ 3385
si@@ 3381
vor@@ 3358
ber@@ 3330
as@@ 3325
lich@@ 3322
ungen 3288
über@@ 3268
y@@ 3247
dar@@ 3243
gibt 3227
also 3208
gr@@ 3200
eich@@ 3197
noch 3187
ik@@ 3185
ter@@ 3177
dieser 3166
1@@ 3164
werden 3152
ach@@ 3127
stell@@ 3125
chen 3124
ul@@ 3090
mich 3074
etwas 3046
ie 3014
rei@@ 3009
om@@ 2979
da@@ 2976
eb@@ 2962
ff@@ 2960
r 2951
geh@@ 2940
ben 2936
v@@ 2929
können 2912
d 2906
kann 2888
z 2879
se 2876
nach 2874
le 2872
ischen 2845
s, 2843
us@@ 2840
ing@@ 2833
ische 2823
wird 2818
Wenn 2814
Menschen 2805
ck@@ 2786
habe 2784
." 2760
eu@@ 2721
ie@@ 2710
♫ 2702
geb@@ 2697
Be@@ 2693
ten. 2690
mach@@ 2687
zi@@ 2687
ang@@ 2682
Ar@@ 2666
and@@ 2664
er, 2664
isch@@ 2663
wen@@ 2662
ek@@ 2660
bei 2655
lichen 2653
liche 2649
vor 2641
ör@@ 2628
Ge@@ 2624
äh@@ 2609
alle 2584
tig@@ 2573
und@@ 2564
wer@@ 2550
eit@@ 2526
f 2523
Gr@@ 2523
mehr 2501
ich@@ 2492
ün@@ 2451
te. 2441
Ein@@ 2429
sten 2427
wirklich 2403
gel@@ 2398
eines 2391
fü@@ 2390
sich@@ 2379
so@@ 2377
zum 2374
zen 2373
ft 2370
am 2356
all 2355
fin@@ 2344
ak@@ 2334
o 2328
Fr@@ 2320
mir 2299
ell@@ 2297
komm@@ 2293
nen 2287
ge 2278
je@@ 2276
Ihnen 2266
ten@@ 2257
weil 2251
ben@@ 2247
ir@@ 2245
Welt 2233
war@@ 2232
durch 2226
Pro@@ 2221
k 2197
enn@@ 2193
ist. 2181
br@@ 2174
per@@ 2158
eg@@ 2148
de@@ 2145
unter@@ 2144
rich@@ 2140
gan@@ 2139
woll@@ 2137
immer 2134
gesch@@ 2134
dieses 2119
U@@ 2106
wor@@ 2103
" 2100
Er 2080
Was 2075
fl@@ 2074
En@@ 2072
ungs@@ 2072
sehen 2064
ann@@ 2057
gef@@ 2056
s. 2054
i 2033
ist@@ 2028
ru@@ 2025
em 2016
ert 2010
hal@@ 2005
th@@ 2005
hin@@ 2002
viel 2001
eit 1994
ser@@ 1992
bei@@ 1984
be 1980
ste 1980
diesem 1973
ger@@ 1968
Au@@ 1968
keine 1950
Also 1947
den, 1946
ück@@ 1938
se@@ 1938
pr@@ 1933
hei@@ 1921
al 1920
lo@@ 1919
keit 1914
Re@@ 1911
ken 1908
c@@ 1901
hä@@ 1900
wur@@ 1899
ander@@ 1895
te@@ 1894
ke 1887
vi@@ 1879
soll@@ 1878
diesen 1872
we@@ 1871
da 1871
meine 1869
Sp@@ 1862
Ges@@ 1852
ung, 1833
Kon@@ 1824
unsere 1823
pp@@ 1822
denk@@ 1803
ihre 1801
viele 1797
ann 1794
är@@ 1793
pl@@ 1789
Or@@ 1785
wo 1784
a, 1783
utz@@ 1776
ation 1770
mit@@ 1758
ere 1752
ah@@ 1743
Leute 1742
sein 1738
for@@ 1737
im@@ 1731
es, 1730
führ@@ 1729
las@@ 1717
d, 1710
ß 1710
inn@@ 1705
ern 1694
Der 1686
dr@@ 1681
sen@@ 1680
ho@@ 1680
Al@@ 1675
ür@@ 1671
to@@ 1669
gew@@ 1664
zwei 1654
äch@@ 1650
wür@@ 1647
Art 1643
den. 1639
Zu@@ 1634
wurde 1632
2@@ 1625
zeig@@ 1620
mer@@ 1614
amm@@ 1614
Aus@@ 1602
einfach 1602
wi@@ 1600
age 1598
groß@@ 1597
pf@@ 1597
ap@@ 1594
ung. 1591
ne 1589
unk@@ 1588
is 1584
ati@@ 1583
che 1580
Vor@@ 1579
du@@ 1578
n, 1576
eren 1573
haben, 1573
etz@@ 1571
des@@ 1570
dies 1559
jetzt 1558
on 1556
äu@@ 1556
spiel@@ 1550
Wel@@ 1542
In 1540
andere 1537
bin 1530
lie@@ 1530
ön@@ 1528
wel@@ 1528
zur 1527
nach@@ 1527
d. 1524
op@@ 1523
lang@@ 1522
bis 1516
Zeit 1516
bring@@ 1515
u 1510
Leben 1510
tig 1508
Wie 1508
seh@@ 1507
kommen 1505
ex@@ 1505
oh@@ 1501
heit 1493
anderen 1492
Ent@@ 1489
ihr 1475
Ide@@ 1474
men 1466
n. 1457
ts@@ 1457
en? 1455
sel@@ 1452
das@@ 1448
Dinge 1446
bet@@ 1434
weg@@ 1422
mal 1421
auen 1420
agen 1419
sa@@ 1414
damit 1411
weiter@@ 1409
mus@@ 1407
.@@ 1406
könn@@ 1403
Unter@@ 1397
Un@@ 1394
0@@ 1393
steh@@ 1391
kei@@ 1389
et, 1389
er. 1386
iert 1385
Jahren 1385
du 1385
ob@@ 1384
alles 1383
tel@@ 1382
de, 1378
eig@@ 1375
ige 1369
Jahr@@ 1364
off@@ 1345
gl@@ 1341
wir@@ 1340
schaf@@ 1333
schn@@ 1332
igen 1332
kon@@ 1327
Leb@@ 1325
haben. 1325
gi@@ 1321
ll@@ 1321
kt 1320
Jahre 1317
ts 1317
ma@@ 1311
Her@@ 1311
Man 1310
denen 1305
müssen 1305
ehr@@ 1303
tet 1303
schein@@ 1301
hr@@ 1299
ass@@ 1299
bl@@ 1298
konn@@ 1293
ale 1292
bar@@ 1290
ent 1289
isch 1288
hatte 1286
fol@@ 1283
hat@@ 1280
neu@@ 1279
b 1278
h 1273
aten 1267
sind, 1265
zusamm@@ 1260
ens@@ 1258
hab@@ 1252
ih@@ 1252
ellen 1252
ehen 1248
mein 1247
denn 1247
Techn@@ 1244
fahr@@ 1235
machen 1232
sind. 1231
sehen, 1230
ess@@ 1224
mo@@ 1223
Ch@@ 1223
tz@@ 1220
gu@@ 1220
macht 1218
el 1214
end 1212
elle 1212
an, 1212
eil@@ 1210
ieren 1208
lei@@ 1207
jem@@ 1206
ahr@@ 1203
gleich@@ 1203
schon 1200
Hier 1200
dig@@ 1199
waren 1195
sen. 1195
sol@@ 1188
äl@@ 1188
de. 1187
et. 1187
wissen 1184
ob 1183
x@@ 1183
ation@@ 1180
Mit@@ 1179
halb 1178
ar 1178
rech@@ 1175
Geb@@ 1173
leb@@ 1173
wahr@@ 1172
muss 1170
unser@@ 1170
me 1166
ad@@ 1164
war, 1161
glaub@@ 1160
sen, 1157
vielleicht 1154
erst@@ 1151
For@@ 1150
Mensch@@ 1149
Wei@@ 1149
selbst 1142
5 1139
ück 1137
Gl@@ 1137
5@@ 1137
ens 1136
ganz 1136
irgend@@ 1134
dort 1132
andel@@ 1130
ec@@ 1128
or 1127
ihnen 1126
dern 1125
4@@ 1124
bin@@ 1124
Des@@ 1123
Ab@@ 1121
erk@@ 1121
einige 1119
Mo@@ 1118
Nach@@ 1117
at 1117
ich, 1116
est@@ 1115
werden. 1114
Nun, 1112
omm@@ 1105
pro@@ 1103
ache 1103
Gel@@ 1102
schaft 1102
Auf@@ 1101
us 1100
ende 1100
Sta@@ 1098
su@@ 1093
können. 1092
tatsächlich 1089
3@@ 1088
wieder 1086
man@@ 1084
fr@@ 1083
geht 1083
Mar@@ 1082
form@@ 1082
Inter@@ 1082
iel@@ 1076
Kin@@ 1075
fen 1072
ne@@ 1071
einz@@ 1071
dach@@ 1065
; 1060
paar 1059
Gen@@ 1056
arbeit@@ 1055
tt@@ 1055
größ@@ 1053
werde 1049
drei 1048
bi@@ 1048
mein@@ 1045
qu@@ 1043
schaff@@ 1043
seine 1042
weise 1040
rit@@ 1040
ßen 1039
nah@@ 1039
zeu@@ 1038
imm@@ 1038
y 1037
würde 1037
ha@@ 1035
get@@ 1035
viel@@ 1034
TED 1031
nicht, 1029
ihn 1027
eigen@@ 1026
besch@@ 1026
Ih@@ 1021
unden 1021
ität 1018
Ding@@ 1016
eri@@ 1015
Po@@ 1013
Mon@@ 1012
heute 1011
tige 1009
unter 1008
lu@@ 1006
tun 1004
ant@@ 1003
zei@@ 1003
rie@@ 1001
alen 1001
teil@@ 998
ze 997
tro@@ 994
en: 993
?" 993
entwickel@@ 991
Per@@ 991
Sie, 988
änder@@ 988
Um@@ 987
eten 986
möchte 986
Diese 980
nun 976
eben 976
natür@@ 975
tion@@ 972
zwei@@ 969
str@@ 968
err@@ 964
bo@@ 964
ell 962
ild@@ 962
ph@@ 961
19@@ 960
hier@@ 959
rä@@ 957
icht 955
äng@@ 953
hör@@ 951
ahl@@ 950
entlich 949
Kinder 948
sein. 947
son@@ 946
vom 945
meiner 944
Problem@@ 943
Ein 940
! 939
brauch@@ 939
zurück@@ 938
st, 936
8@@ 934
tigen 933
ep@@ 932
neue 931
genau 930
gut 930
6@@ 929
og@@ 928
kann@@ 927
Dies 927
Geschichte 924
schl@@ 923
Th@@ 922
Le@@ 921
versteh@@ 920
erzähl@@ 920
lich, 918
det 917
Ber@@ 917
davon 917
Fre@@ 916
iger 914
tre@@ 913
no@@ 911
unserer 910
ur 909
a. 906
wis@@ 906
enden 905
Jahr 905
ko@@ 905
durch@@ 903
ank@@ 901
Teil 900
kauf@@ 900
pe@@ 899
können, 898
zwischen 897
kam@@ 895
ort@@ 895
beg@@ 894
Arb@@ 894
an. 893
hat, 892
ihr@@ 891
kein 890
her 889
funktion@@ 888
frag@@ 887
sondern 884
näch@@ 883
Me@@ 883
ig 881
he 877
heraus@@ 877
k. 874
stän@@ 872
aup@@ 871
hn@@ 870
setz@@ 869
rach@@ 869
Nat@@ 869
arbei@@ 868
sein, 868
gib@@ 864
bau@@ 864
wirk@@ 862
anz@@ 860
äd@@ 859
brach@@ 856
Ma@@ 855
bedeut@@ 855
es. 854
ationen 853
darüber 850
ck 850
te: 848
tes 848
mensch@@ 848
Reg@@ 846
Ex@@ 845
schen 845
gerade 844
9@@ 844
wus@@ 844
Rau@@ 844
Bu@@ 843
Stu@@ 842
ni@@ 842
lan@@ 838
etzt 838
asch@@ 837
laub@@ 837
0 835
ser 833
inter@@ 833
fühl@@ 832
kommt 831
eil 827
gehen 826
ef@@ 826
Eine 824
icht@@ 823
Millionen 822
Milli@@ 822
ete 822
ok@@ 819
ei 819
Viel@@ 817
Mus@@ 817
tu@@ 816
doch 816
Als 813
Di@@ 812
kann. 812
Par@@ 811
versuch@@ 811
Wir@@ 810
schau@@ 810
t: 808
nehmen 807
verschie@@ 807
öff@@ 806
hat. 806
Bi@@ 806
aus, 804
sagen, 804
Gesch@@ 803
sagen 801
mm@@ 800
ohne 800
schie@@ 799
ran@@ 796
Gehir@@ 796
mö@@ 795
nehm@@ 795
it 794
We@@ 793
voll@@ 793
oll@@ 792
iti@@ 792
werden, 792
Ro@@ 792
m, 792
fall@@ 790
fan@@ 787
ta@@ 785
aus. 785
rank@@ 785
ganze 783
unde 782
et 780
ziemlich 780
sogar 780
zieh@@ 779
War@@ 779
kur@@ 778
machen. 778
ast 778
ut 777
end@@ 777
ihren 773
7@@ 773
schei@@ 772
ließ@@ 771
win@@ 769
Plan@@ 767
gab 766
wird. 766
ign@@ 766
ik 766
während 765
mög@@ 764
erste 764
ster@@ 764
ein, 763
lin@@ 763
ing 763
wichtig@@ 762
ic@@ 761
jeder 760
äm@@ 760
warum 759
etwa 759
Univers@@ 758
p 757
Go@@ 757
möglich@@ 754
tier@@ 754
deck@@ 753
letzten 752
fer@@ 749
wohl 748
üh@@ 746
are 746
beh@@ 746
iz@@ 745
esen 745
sieht 745
tern 744
Bo@@ 744
eich 744
Über@@ 744
ersten 742
.000 741
tun@@ 739
So 739
wich@@ 738
nie 738
Talk 736
heit@@ 735
Geschich@@ 735
unser 735
Afrik@@ 734
Wissenschaf@@ 734
tur@@ 734
Comp@@ 734
wach@@ 733
einmal 733
enz@@ 730
'@@ 729
wie@@ 728
passier@@ 728
welche 726
af@@ 726
geben 726
t? 725
ähr@@ 725
ild 725
la@@ 725
ös@@ 724
onen 724
star@@ 724
nicht. 724
ologie 722
eln 721
Ta@@ 720
st. 718
los@@ 718
as 717
ieren. 717
gab@@ 717
große 717
Prozent 716
hi@@ 715
glau@@ 715
sprech@@ 714
Subtitles 713
Transcript: 713
hatten 712
itä@@ 712
Bil@@ 711
Ger@@ 710
stellen 708
tion 707
00 707
Ph@@ 706
Ihre 706
letz@@ 706
on, 705
halten 704
veränder@@ 704
un, 702
üch@@ 702
timm@@ 700
Sei@@ 700
kun@@ 698
ide@@ 697
ennen 696
könnte 694
ütz@@ 694
vol@@ 693
Dies@@ 693
ien 691
such@@ 688
Min@@ 688
oo@@ 688
meisten 687
wä@@ 687
kom@@ 686
finden 686
chte 684
dazu 684
Aut@@ 681
sagte 680
erst 679
sei@@ 679
kam 678
tl@@ 678
stat@@ 678
wär@@ 677
lieg@@ 676
ger 675
Bes@@ 674
dab@@ 670
Beispiel 670
war. 669
Was@@ 667
blem 665
Fo@@ 665
ub@@ 664
auß@@ 664
Ö@@ 663
Fü@@ 661
hunder@@ 661
dan@@ 660
tra@@ 660
Fil@@ 660
fe 660
Zei@@ 660
hö@@ 660
mei@@ 658
... 657
A 657
Wo@@ 657
tur 656
müs@@ 654
Sach@@ 653
al, 652
einfach@@ 652
Syst@@ 652
bis@@ 652
do@@ 652
Kar@@ 651
k, 650
Indi@@ 650
ili@@ 649
Möglich@@ 648
interess@@ 648
tell@@ 648
Zeit@@ 648
nichts 647
Also, 647
lich. 646
reib@@ 645
2 644
kann, 643
net@@ 643
wäre 643
meinem 642
ali@@ 642
meinen 642
ter, 640
wird, 640
Projek@@ 638
dung 636
ologi@@ 636
wissen, 635
Ä@@ 635
Qu@@ 634
wunder@@ 634
äs@@ 633
Je@@ 633
zur@@ 631
best@@ 629
ach 628
ast@@ 627
onder@@ 626
son 626
ähl@@ 626
to 625
lli@@ 624
Medi@@ 624
so, 623
wick@@ 623
ins 623
leg@@ 621
fal@@ 616
tiv@@ 614
Dan@@ 613
re 613
sk@@ 613
bel@@ 613
hl@@ 611
auch@@ 611
„@@ 611
tor@@ 607
ber 607
Bei@@ 605
10 604
Wis@@ 602
Fl@@ 601
aff@@ 601
enge 600
itu@@ 600
ev@@ 598
Ant@@ 598
ster 598
Li@@ 598
ft@@ 596
y, 595
nam@@ 594
est 590
erg@@ 590
sam@@ 589
wer 587
ging 584
enn 582
passi@@ 579
ind 578
Br@@ 577
he@@ 576
ollar 574
amer@@ 573
üs@@ 569
der, 569
men@@ 564
dam@@ 564
v 563
um, 562
zus@@ 561
will 561
ord@@ 556
was, 555
lik@@ 554
Se@@ 551
20 549
ed 546
iel 545
net 544
fre@@ 544
nich@@ 543
50 542
woh@@ 540
Ob@@ 540
Proz@@ 539
hel@@ 537
sin@@ 535
mir@@ 534
tn@@ 533
gro@@ 529
me@@ 526
Su@@ 525
pas@@ 525
To@@ 523
wa@@ 523
res@@ 518
jek@@ 518
spr@@ 517
chn@@ 514
ac@@ 514
and, 513
os 512
tim@@ 512
sy@@ 510
rat@@ 508
mal@@ 505
po@@ 504
ine 504
olog@@ 504
Amer@@ 503
on. 503
meh@@ 503
erz@@ 502
stand 501
re, 499
min@@ 499
No@@ 498
Wor@@ 496
dru@@ 493
ka@@ 493
will@@ 492
produ@@ 491
our@@ 491
fas@@ 490
sat@@ 488
ate 487
8 486
Te@@ 486
enti@@ 483
bri@@ 481
uter 481
h, 479
se, 478
ill@@ 476
mor@@ 474
nor@@ 473
deut@@ 472
mu@@ 464
dies@@ 463
,@@ 462
Man@@ 462
3 460
Sy@@ 458
ven 456
200@@ 456
tri@@ 455
eht 455
tal@@ 454
Ihr@@ 453
dre@@ 452
hol@@ 449
ch, 449
e: 447
sion 447
per 442
sit@@ 438
tes@@ 436
r. 435
ort 435
“ 432
4 430
ack@@ 429
fri@@ 428
ori@@ 427
dn@@ 426
tru@@ 426
selb@@ 420
au 418
ari@@ 415
Ho@@ 412
m. 410
20@@ 410
sh@@ 408
co@@ 407
stru@@ 406
senschaf@@ 405
ter. 404
par@@ 403
6 402
chit@@ 402
rop@@ 397
lat@@ 397
os@@ 394
Ne@@ 391
ick@@ 391
ysi@@ 391
system@@ 390
pa@@ 389
ve 389
illi@@ 388
bu@@ 388
them@@ 387
was@@ 385
x 385
eng@@ 385
00@@ 384
New 384
ou@@ 383
sor@@ 382
öß@@ 381
7 380
30 378
fel@@ 375
eicht 375
al. 374
vers@@ 373
beginn@@ 372
1 371
omp@@ 371
100 370
Chin@@ 370
sl@@ 361
ant 356
tho@@ 355
tom@@ 354
interes@@ 353
ier 352
y. 351
of@@ 350
ch. 350
's 345
mat@@ 343
TED@@ 343
the@@ 340
e-@@ 340
glob@@ 339
Yor@@ 339
in, 336
gar 335
ation, 334
les 333
se. 333
arb@@ 332
stri@@ 327
ess 324
OK@@ 324
sta@@ 321
wan@@ 320
wal@@ 319
stu@@ 318
% 317
neh@@ 316
har@@ 314
if@@ 314
A: 313
ats@@ 313
sein@@ 311
age, 309
organ@@ 308
fi@@ 307
nov@@ 306
ign 304
system 302
off 300
spe@@ 300
rel@@ 299
ris@@ 297
sion@@ 297
S 296
ause 295
einf@@ 295
ds 293
stand@@ 292
diti@@ 292
eff@@ 291
ks 291
poli@@ 289
' 288
fu@@ 287
ank 282
re. 281
9 281
togra@@ 279
Y@@ 278
elleicht 278
uns@@ 277
o, 276
ution 274
mis@@ 272
[@@ 271
ing, 268
ent. 267
000 263
ent, 262
Tran@@ 258
pri@@ 257
o. 256
!@@ 254
sto@@ 253
ative 252
is, 252
e? 251
tin@@ 251
ure 251
ion 251
ollar@@ 249
ver 249
zw@@ 248
ation. 248
app@@ 247
del@@ 241
bas@@ 241
gn@@ 240
ame 240
pos@@ 238
ven@@ 238
sum@@ 237
olo@@ 236
Geh@@ 235
] 235
Si@@ 235
vis@@ 234
mon@@ 234
mag@@ 232
ty@@ 232
Jah@@ 231
techn@@ 230
ard 230
ff 228
dro@@ 228
plan@@ 227
evol@@ 227
az@@ 227
ition 225
ans 224
ts. 223
pre@@ 223
in. 220
is. 219
tem@@ 219
enschaf@@ 217
inv@@ 216
go@@ 215
ir 213
gend@@ 213
av@@ 212
ers 212
bein@@ 210
lim@@ 209
aub@@ 208
— 208
one 208
ase 205
ed@@ 205
ce 200
mar@@ 198
mas@@ 197
tive 197
real@@ 197
under@@ 197
up@@ 197
dri@@ 195
Ü@@ 195
of 194
gh@@ 192
ing. 191
w. 190
gener@@ 188
gra@@ 188
eute 181
me, 181
?@@ 180
dis@@ 179
All 179
avi@@ 178
atsächlich 177
anc@@ 175
hy@@ 174
abl@@ 174
id@@ 174
blo@@ 172
ts, 171
hrend 170
wit@@ 170
imp@@ 170
“@@ 169
om 168
medi@@ 167
ey 166
ell, 161
pi@@ 161
ensch@@ 158
/@@ 157
ste@@ 156
por@@ 155
–@@ 154
atsäch@@ 153
od 153
vir@@ 152
fe@@ 152
fil@@ 151
il 151
tion, 151
ings 151
ance 150
C 150
bre@@ 149
it, 148
met@@ 148
ci@@ 147
mark@@ 147
ill 146
ys 146
dur@@ 146
hand@@ 145
tion. 144
vie@@ 144
ome 142
ans@@ 142
ves 141
V 141
 @@ 140
c 137
dat@@ 137
lob@@ 136
kin@@ 136
I 130
Mö@@ 129
w 129
D 127
ust 127
pul@@ 127
ther@@ 124
So, 124
ity 123
sm@@ 123
pres@@ 122
glich@@ 121
us, 119
ational 119
ns 118
ear@@ 117
us. 116
th 116
..@@ 114
fro@@ 114
som@@ 113
vern@@ 113
T 112
design@@ 111
Sub@@ 111
ad 111
unktion@@ 109
technolog@@ 108
ons 107
ack 107
inst@@ 106
dy 105
ps 105
wei 104
thei@@ 103
bro@@ 102
ade 102
ite 102
ole 101
ry 100
don@@ 99
oc@@ 97
X@@ 97
sing@@ 97
it. 95
," 95
ong 95
hist@@ 94
same 94
ment@@ 93
fig@@ 93
ong@@ 93
exp@@ 93
ki@@ 92
ile 91
w, 90
ros@@ 90
lar@@ 90
Ther@@ 90
The 90
stor@@ 90
ey@@ 89
pe 89
our 87
exper@@ 86
bra@@ 85
ffer@@ 85
energ@@ 83
abili@@ 82
than 81
ms 81
nu@@ 81
ents 80
igh@@ 80
y? 79
ese 79
spiel 79
ld 78
trans@@ 78
Wh@@ 77
sim@@ 76
mom@@ 75
inform@@ 75
do 75
ue 74
id 74
:@@ 73
problem@@ 71
nec@@ 71
P 70
here 70
ws 69
ty 68
fa@@ 67
nd 67
sub@@ 66
]@@ 66
the 66
fir@@ 65
O 65
ment 65
ies 64
ve, 64
sur@@ 64
expl@@ 63
wom@@ 63
You@@ 63
sc@@ 62
rip@@ 61
ga@@ 61
my@@ 61
vel@@ 60
It@@ 60
N 60
ates 59
person@@ 59
bor@@ 59
entwick@@ 58
hum@@ 58
these 57
ple 57
ess, 57
go 57
ther 56
%@@ 56
fac@@ 56
” 55
by 55
Ear@@ 55
wa 55
how 54
ivers@@ 54
ain@@ 54
old 54
lear@@ 54
rec@@ 54
inc@@ 54
ll 53
wat@@ 53
ic 52
E 52
econ@@ 52
B 51
char@@ 50
kes 50
val@@ 49
mem@@ 49
king 48
over 48
blem@@ 47
get 47
were 47
ess. 47
col@@ 46
,000 46
cle@@ 46
comp@@ 45
X 44
ever@@ 44
K 44
Bec@@ 44
ary 43
♪ 42
use 42
… 42
ence 41
con@@ 41
sho@@ 40
nat@@ 40
oun@@ 39
$@@ 39
car@@ 38
ve. 38
Q@@ 38
one. 38
enc@@ 38
tic@@ 37
com@@ 37
ly 37
&@@ 37
thin@@ 36
ziem@@ 36
cl@@ 36
bac@@ 36
ble 36
its 36
any@@ 35
é@@ 35
L 35
allo@@ 35
R 34
ke@@ 34
wn 34
bit 33
M 33
dic@@ 33
pla@@ 33
$ 33
anim@@ 33
Americ@@ 33
right 32
kno@@ 32
G 32
my 31
[ 31
see 30
cre@@ 30
lic@@ 30
low 30
oul@@ 30
tit@@ 30
can@@ 29
pat@@ 29
live 29
sha@@ 29
ory 28
W 28
way 28
U 28
ble@@ 28
num@@ 27
fam@@ 27
á@@ 26
design 25
dow@@ 25
F 25
real 25
e's 24
H 24
ity, 24
up 24
´@@ 24
ye@@ 24
ep 23
»@@ 23
jec@@ 23
½ 23
gh 23
for 22
q@@ 22
Afri@@ 22
able 22
ous@@ 22
then 22
bab@@ 22
’@@ 21
ity. 21
we 20
pho@@ 20
°@@ 20
foo@@ 20
cul@@ 20
ok 19
é 19
righ@@ 19
still 19
big 19
β@@ 19
bec@@ 18
differ@@ 18
other@@ 18
lec@@ 18
lif@@ 18
shi@@ 18
One 17
«@@ 17
put 17
ily 17
—@@ 16
kön@@ 16
can 16
Y 16
illion 16
chang@@ 16
/ 16
;@@ 16
« 16
ys, 15
kind 15
Q 15
fut@@ 15
side 15
ight 14
last 14
tic 14
My 14
‟ 14
litt@@ 14
duc@@ 13
ed, 13
bus@@ 13
spac@@ 13
day 13
high@@ 13
= 13
‘ 13
‚@@ 13
ó@@ 13
out 13
ally 13
Z 13
ous 13
resp@@ 13
J 12
These 12
² 12
ñ@@ 12
cor@@ 11
ice 11
back 11
ou 11
» 11
ound 11
read@@ 11
more 11
ever 11
chil@@ 11
red 11
ght 10
‘@@ 10
poin@@ 10
We 10
”@@ 10
) 10
+ 10
own 10
part 9
ical 9
coun@@ 9
gre@@ 9
ving 9
ways 9
not 9
ding 9
any 9
has 9
self@@ 8
cent@@ 8
ations 8
ould 8
ting 8
ough@@ 8
ough 8
now 8
out@@ 8
#@@ 8
ated 8
j 8
acc@@ 8
work 8
cer@@ 7
ü 7
ful 7
very 7
TE@@ 7
time 7
They 7
loo@@ 7
What 7
♫@@ 7
soci@@ 7
sort 7
And 7
belie@@ 7
pic@@ 7
life 7
tell 7
ed. 7
th. 7
but 7
alk 7
imag@@ 7
ited 6
nex@@ 6
@@@ 6
eas@@ 6
your 6
ó 6
she 6
if 5
way, 5
way. 5
sai@@ 5
clo@@ 5
=@@ 5
wh@@ 5
(@@ 5
à 5
his 5
è@@ 5
you 5
piec@@ 5
thr@@ 5
ture 5
work@@ 5
Now 5
reas@@ 5
start 4
ating 4
you@@ 4
lea@@ 4
no 4
…@@ 4
´ 4
í@@ 4
sci@@ 4
ning 4
+@@ 4
possi@@ 4
’ 4
cour@@ 4
° 4
after 4
love 4
here, 4
say 4
`@@ 4
had 4
You 4
you. 4
This 4
lot 4
here. 4
›@@ 4
cap@@ 4
ely 4
ying 4
ã@@ 4
It 4
¼ 3
some 3
better 3
perc@@ 3
show 3
²@@ 3
ted 3
œ@@ 3
try 3
¥ 3
act 3
human 3
ç@@ 3
're 3
with 3
talk 3
thou@@ 3
have 3
™ 3
½@@ 3
à@@ 3
q 3
â@@ 3
‹@@ 3
^@@ 3
tions 2
got 2
š@@ 2
worl@@ 2
  2
Afric@@ 2
It's 2
come 2
ect 2
When 2
♪@@ 2
only 2
every 2
at's 2
spec@@ 2
ned 2
projec@@ 2
other 2
If 2
ligh@@ 2
that@@ 2
É@@ 2
don't 2
plac@@ 2
^ 2
ked 2
million 2
@@ 2
happ@@ 2
` 2
„ 2
day, 2
ques@@ 1
ć@@ 1
That 1
ful@@ 1
¾ 1
How 1
compl@@ 1
import@@ 1
down 1
There's 1
thing 1
that's 1
first 1
that 1
take 1
make 1
want 1
much 1
ú@@ 1
* 1
á 1
good 1
from 1
³ 1
why 1
call@@ 1
)@@ 1
© 1
€ 1
ly, 1
Now, 1
done 1
little 1
® 1
ê@@ 1
‹ 1
even 1
et's 1
new 1
like 1
@ 1
they 1
find 1
к@@ 1
ë@@ 1
beau@@ 1
dollar@@ 1
toge@@ 1
£ 1
ā@@ 1
Ç@@ 1
went 1
struc@@ 1
ï@@ 1
commun@@ 1
*@@ 1
when 1
， 1
build@@ 1
childr@@ 1
I've 1
î@@ 1
less 1
ø@@ 1
β 1
