the 78215
to 47090
a 46038
of 45579
and 39957
in 32040
c@@ 30722
that 28618
I 26079
is 25524
, 21640
you 21100
. 20529
s 20122
And 19039
in@@ 17150
we 16739
ed 16138
p@@ 16127
o@@ 16096
s@@ 15680
it 15536
ing 15484
y 15297
f@@ 15148
this 14446
es 14300
t@@ 13876
-- 13641
e, 13163
on 13042
d@@ 12883
a@@ 12851
b@@ 12784
e@@ 12588
t 12431
ar@@ 12396
e. 12316
m@@ 12236
y@@ 12130
s, 11837
h@@ 11726
on@@ 11363
are 11357
i@@ 11251
was 10997
w@@ 10923
e 10621
al 10529
or@@ 10527
s. 10495
at@@ 10436
re@@ 10409
for 10367
u@@ 10366
al@@ 10267
have 10234
l@@ 10025
n@@ 9839
an 9566
li@@ 9444
st@@ 9059
v@@ 9025
with 8991
d 8731
all 8609
be 8556
at 8547
-@@ 8486
g@@ 8439
as 8248
about 8114
they 8107
one 7955
can 7915
what 7825
an@@ 7804
ou@@ 7766
r@@ 7708
en@@ 7696
or 7465
"@@ 7357
th@@ 7245
de@@ 7185
un@@ 7089
ac@@ 7048
con@@ 6993
di@@ 6949
ch@@ 6913
ic@@ 6875
not 6837
to@@ 6813
pro@@ 6794
S@@ 6650
lo@@ 6603
ve 6575
y. 6574
le@@ 6552
is@@ 6534
y, 6268
? 6193
do 6137
ro@@ 6092
k@@ 6072
es@@ 5969
ly 5890
: 5848
et@@ 5848
as@@ 5826
from 5776
it's 5737
So 5712
se@@ 5681
il@@ 5631
t, 5522
it@@ 5509
el@@ 5480
like 5466
er 5436
our 5424
my 5402
mo@@ 5394
so 5382
am@@ 5307
us@@ 5297
om@@ 5281
very 5230
The 5219
ur@@ 5215
ec@@ 5198
just 5163
ag@@ 5145
ti@@ 5029
er@@ 5028
but 5021
ex@@ 5020
d, 4988
ver@@ 4946
out 4892
people 4890
A@@ 4886
ma@@ 4848
si@@ 4823
C@@ 4734
if 4722
es, 4693
going 4685
But 4673
me@@ 4621
vi@@ 4616
these 4609
l 4545
es. 4530
pl@@ 4514
ul@@ 4497
t. 4479
em@@ 4465
per@@ 4394
co@@ 4364
no@@ 4361
ir@@ 4355
qu@@ 4304
by 4282
ar 4240
wh@@ 4230
D@@ 4223
su@@ 4223
ol@@ 4223
ra@@ 4219
d. 4198
wor@@ 4192
po@@ 4186
bo@@ 4163
ent@@ 4145
which 4138
he 4067
ate 4053
p 4039
." 4014
because 4009
ts 4002
ri@@ 3977
ation 3971
get 3969
there 3933
king 3927
ter@@ 3922
do@@ 3905
M@@ 3905
had 3898
We 3898
up 3891
O@@ 3871
when 3831
This 3750
ent 3727
think 3718
B@@ 3680
your 3671
ab@@ 3667
how 3665
would 3640
se 3633
res@@ 3627
I'm 3575
see 3575
really 3567
m 3566
ds 3553
It's 3548
sp@@ 3544
H@@ 3539
more 3515
o 3472
E@@ 3459
for@@ 3414
ut@@ 3404
tr@@ 3383
ting 3382
k 3378
were 3363
all@@ 3363
has 3342
their 3340
h 3338
's 3327
thing 3297
who 3265
w 3257
ad@@ 3255
ing@@ 3208
1@@ 3206
en 3193
ta@@ 3186
ce 3182
some 3166
where 3113
You 3109
par@@ 3100
into 3090
that's 3082
don't 3067
then 3052
ap@@ 3042
be@@ 3039
T@@ 3021
tion 3013
th 3008
me 2996
L@@ 2994
ally 2993
im@@ 2966
ig@@ 2963
ne@@ 2950
P@@ 2947
go@@ 2937
j@@ 2930
will 2923
au@@ 2906
sh@@ 2903
us 2890
them 2878
It 2858
da@@ 2850
ity 2833
♫ 2830
actually 2825
way 2824
ic 2817
sa@@ 2810
ha@@ 2799
gh@@ 2798
e's 2788
N@@ 2761
ci@@ 2753
fac@@ 2750
ph@@ 2748
So, 2743
ing, 2741
W@@ 2737
n 2699
ess 2687
ho@@ 2686
know 2677
ther@@ 2657
want 2653
te@@ 2652
com@@ 2639
go 2631
make 2618
iti@@ 2615
could 2577
it. 2575
we@@ 2568
I@@ 2564
been 2561
Th@@ 2555
ing. 2550
op@@ 2539
cre@@ 2535
z@@ 2532
F@@ 2520
he@@ 2509
G@@ 2501
R@@ 2488
um@@ 2470
things 2449
other 2441
comp@@ 2432
ther 2430
le 2422
you@@ 2417
f 2409
got 2408
ist@@ 2402
thing@@ 2380
able 2347
and@@ 2341
little 2318
iz@@ 2307
tic@@ 2305
dis@@ 2298
ch 2269
ad 2269
come 2261
bu@@ 2257
tri@@ 2247
than 2240
fe@@ 2232
our@@ 2222
most 2216
ure 2209
J@@ 2208
kind 2207
tur@@ 2175
c 2172
ving 2167
enc@@ 2162
know, 2151
x@@ 2150
pre@@ 2136
something 2136
gr@@ 2122
pp@@ 2117
here 2115
ying 2112
ine 2100
They 2080
; 2056
his 2047
look 2043
stu@@ 2033
ely 2025
Y@@ 2023
those 2021
ep@@ 2015
first 2013
two 2009
we're 2007
age 2004
mon@@ 1998
years 1996
new 1995
et 1969
ter 1962
ati@@ 1958
time 1953
so@@ 1949
des@@ 1943
ked 1940
no 1926
ted 1926
wa@@ 1920
pa@@ 1907
year@@ 1906
only 1906
car@@ 1892
sel@@ 1889
k, 1886
a, 1884
now 1882
ks 1879
bl@@ 1868
said, 1854
ant 1848
ck@@ 1844
over 1828
also 1820
min@@ 1809
ous 1805
In 1800
stor@@ 1797
oo@@ 1787
much 1777
str@@ 1775
gu@@ 1769
lot 1767
take 1748
world 1748
tim@@ 1747
back 1744
ence 1741
fin@@ 1733
you're 1724
Now, 1720
every@@ 1718
ated 1718
'@@ 1707
est 1700
ple 1697
a. 1697
What 1693
ell@@ 1683
ers 1683
plac@@ 1676
K@@ 1674
coun@@ 1673
up@@ 1666
und@@ 1662
war@@ 1660
any 1656
ght 1647
ill@@ 1639
0@@ 1636
it, 1635
hi@@ 1630
need 1629
ess@@ 1628
ob@@ 1628
bi@@ 1627
under@@ 1626
pe@@ 1624
put 1617
rec@@ 1614
many 1613
ents 1613
form@@ 1612
right 1609
wat@@ 1608
happ@@ 1604
du@@ 1603
ves 1597
ite 1596
gra@@ 1595
der 1589
oc@@ 1588
there's 1586
pres@@ 1581
tu@@ 1580
tra@@ 1579
inter@@ 1579
ten@@ 1577
tion@@ 1565
2@@ 1563
even 1556
jec@@ 1551
she 1549
old 1540
la@@ 1538
sc@@ 1535
did 1533
sho@@ 1523
sol@@ 1521
on. 1520
work 1519
el 1517
ge 1515
any@@ 1506
st 1502
fi@@ 1492
igh@@ 1491
rel@@ 1490
g 1489
ons 1487
her@@ 1485
If 1484
pla@@ 1482
sur@@ 1480
around 1479
ed, 1476
ru@@ 1475
3@@ 1472
ed. 1472
its 1472
on, 1465
er, 1465
pr@@ 1464
gi@@ 1463
eas@@ 1461
kno@@ 1457
man@@ 1455
plan@@ 1452
every 1451
br@@ 1444
is, 1443
've 1442
tal@@ 1441
being 1438
ear@@ 1437
loo@@ 1435
through 1433
ful 1432
good 1430
them@@ 1429
ach@@ 1427
der@@ 1425
end 1420
pic@@ 1419
de 1412
gro@@ 1408
id@@ 1405
thin@@ 1402
ies 1401
Well, 1400
ally, 1398
they're 1397
k. 1396
different 1394
same 1392
wer@@ 1389
ble 1388
ili@@ 1388
sim@@ 1382
gen@@ 1382
enti@@ 1379
.@@ 1376
use 1371
bas@@ 1369
mat@@ 1367
I'@@ 1366
wi@@ 1362
sci@@ 1357
ser@@ 1355
ang@@ 1349
ei@@ 1342
ey@@ 1335
called 1331
o, 1326
down 1320
spec@@ 1318
doing 1318
inv@@ 1316
ved 1315
x 1313
ed@@ 1311
ber@@ 1309
col@@ 1309
sen@@ 1302
A 1293
're 1288
tre@@ 1287
lear@@ 1287
ws 1284
That's 1283
get@@ 1281
anc@@ 1275
ty 1274
ans 1272
ast@@ 1265
I've 1263
en, 1259
ques@@ 1258
made 1257
gre@@ 1254
with@@ 1254
ation@@ 1253
day 1249
He 1243
an, 1237
son@@ 1227
w. 1227
den@@ 1225
rit@@ 1219
dic@@ 1218
her 1215
ating 1212
hel@@ 1210
three 1209
body 1206
sm@@ 1206
that, 1205
cour@@ 1204
5@@ 1204
w, 1203
ide@@ 1200
ff@@ 1199
ber 1199
ys 1197
righ@@ 1188
poin@@ 1187
some@@ 1186
say 1178
se, 1173
end@@ 1168
ture 1168
exper@@ 1168
import@@ 1159
fl@@ 1159
4@@ 1156
?" 1156
human 1152
0 1150
te 1149
worl@@ 1148
ever 1148
lic@@ 1148
try 1147
happen@@ 1146
V@@ 1140
fa@@ 1140
pi@@ 1138
'll 1137
ation. 1135
wer 1131
There 1130
" 1130
ways 1127
pos@@ 1127
talk 1126
peopl@@ 1126
lif@@ 1121
ary 1119
ment 1118
tell 1109
We@@ 1108
life 1106
can@@ 1105
ation, 1104
men@@ 1100
er. 1098
ak@@ 1098
went 1097
ev@@ 1096
i 1094
why 1093
last 1090
mor@@ 1090
olog@@ 1081
red 1078
ful@@ 1076
pri@@ 1076
am 1073
pe 1072
belie@@ 1063
bra@@ 1063
find 1060
technolog@@ 1060
tro@@ 1059
eng@@ 1058
lin@@ 1057
hear@@ 1055
ok 1053
give 1051
sch@@ 1051
Wh@@ 1042
again@@ 1041
tt@@ 1035
ough 1030
didn't 1027
sort 1027
TED 1026
ical 1026
can't 1025
Al@@ 1016
should 1016
bac@@ 1014
that. 1013
we've 1012
bet@@ 1008
,000 1008
great 1006
started 1006
side 1006
thou@@ 1005
bab@@ 1005
als 1004
foo@@ 1002
ame 1001
big 1001
ous@@ 1001
har@@ 999
you. 999
ese 998
soci@@ 998
show 995
percent 991
befor@@ 989
tor@@ 988
8@@ 980
An@@ 980
cul@@ 978
say, 976
after 975
est@@ 974
tin@@ 972
ke 972
oul@@ 969
19@@ 969
't 968
star@@ 968
sy@@ 966
eb@@ 965
imag@@ 959
compl@@ 957
used 957
problem@@ 956
sk@@ 956
lik@@ 954
of@@ 953
another 951
U@@ 945
own 945
ps 944
ast 943
That 941
vir@@ 936
cor@@ 936
wing 936
mar@@ 936
6@@ 931
e? 931
ye@@ 930
re. 930
9@@ 927
never 927
self@@ 926
exam@@ 926
produc@@ 924
possi@@ 924
this. 922
duc@@ 917
nat@@ 914
change 913
start 913
other@@ 912
ey 911
tions 910
bit 909
vis@@ 909
ven 908
came 907
ong 907
nec@@ 907
kes 906
ll 899
fam@@ 898
idea 898
might 898
real@@ 898
shi@@ 898
Americ@@ 897
ly, 897
," 896
beg@@ 896
stru@@ 895
ste@@ 895
whole 895
interes@@ 894
mem@@ 893
bre@@ 890
chang@@ 889
ge@@ 889
next 888
al, 888
ance 888
read@@ 887
ild 886
ations 884
num@@ 883
How 883
al. 882
ub@@ 882
pul@@ 882
tiv@@ 881
part 881
lar@@ 880
ant@@ 879
tion. 879
dat@@ 879
5 875
toge@@ 875
looking 874
here, 872
cent@@ 872
spac@@ 869
stand 869
ity. 867
dy 867
few 867
en. 865
ect 861
does 854
ded 852
St@@ 852
exp@@ 852
ah@@ 852
ain@@ 851
Because 850
incre@@ 850
if@@ 848
here. 848
devel@@ 847
build@@ 843
ve, 843
mus@@ 843
world. 842
When 842
7@@ 841
wom@@ 840
ding 838
n't 837
ust 837
mark@@ 837
e-@@ 832
econ@@ 830
still 829
Now 828
each 827
comes 827
ning 825
gener@@ 823
secon@@ 823
acc@@ 823
commun@@ 821
ck 817
them. 816
tru@@ 815
fr@@ 814
Thank 812
design@@ 812
off 811
there. 808
the@@ 808
ft 807
Afric@@ 807
ign 806
ari@@ 805
ros@@ 804
between 804
eff@@ 803
ice 802
system@@ 802
o. 802
abl@@ 801
et's 800
ges@@ 800
childr@@ 797
’@@ 797
million 796
ent. 795
way, 793
fri@@ 793
this, 793
re, 793
gl@@ 793
ve. 792
lu@@ 791
cer@@ 790
thought 789
doesn't 788
found 784
et. 777
um 775
oun@@ 775
organ@@ 774
ong@@ 772
bes@@ 772
tion, 770
time, 769
cap@@ 768
wanted 767
av@@ 767
said 766
vel@@ 766
dn't 766
ile 766
wn 765
ity, 765
reas@@ 763
ind 761
ort@@ 758
long 758
ep 756
ited 755
Ther@@ 754
time. 754
! 753
oll@@ 752
ki@@ 752
tel@@ 751
ign@@ 750
ome 748
ty@@ 748
spe@@ 747
off@@ 747
t? 746
Talk 744
b 744
son 742
anim@@ 741
ran@@ 738
eri@@ 738
lat@@ 736
me, 731
real 731
hum@@ 727
mis@@ 727
ke@@ 723
Ch@@ 720
OK@@ 719
et, 719
itu@@ 719
fre@@ 719
hal@@ 715
Subtitles 713
Transcript: 713
sion 713
beh@@ 710
sub@@ 709
at's 707
differ@@ 706
ollar@@ 704
mu@@ 701
r 699
trans@@ 699
ten 694
10 694
ment@@ 686
energ@@ 685
ne 685
No@@ 684
00 684
ent, 682
vie@@ 679
dri@@ 678
stand@@ 676
ass@@ 675
ack 674
ie@@ 672
ris@@ 671
inn@@ 671
del@@ 671
ry 670
ans@@ 670
ist 668
Un@@ 663
in. 663
re 663
mer@@ 662
ga@@ 661
illi@@ 661
il 657
ational 657
ative 656
und 656
diti@@ 653
fol@@ 652
ion 649
az@@ 646
ord@@ 643
ali@@ 636
ach 635
Indi@@ 634
ven@@ 631
ver 631
som@@ 631
ch. 628
ase 627
les 625
wel@@ 620
in, 619
tive 617
mag@@ 614
and, 613
ens 612
ger 611
dr@@ 610
imp@@ 609
ek@@ 606
ll@@ 599
lim@@ 596
ort 594
ts. 591
evol@@ 590
ysi@@ 589
nam@@ 587
n. 587
ight 580
poli@@ 577
In@@ 576
system 574
Mar@@ 573
blem 570
onder@@ 570
was@@ 570
ef@@ 569
h, 567
sum@@ 566
stri@@ 561
glob@@ 560
don@@ 560
og@@ 560
so, 559
tem@@ 557
e: 556
dro@@ 555
n, 553
sit@@ 553
man 549
ir 547
is. 544
od 544
hat@@ 540
ein@@ 539
Mo@@ 534
ins 534
pas@@ 534
wis@@ 532
Go@@ 529
las@@ 527
50 526
st, 526
20 526
... 525
fu@@ 523
they@@ 522
aus@@ 521
ze 520
win@@ 519
ell, 515
ill 514
sto@@ 513
actu@@ 513
se. 510
om 509
passi@@ 502
ken 500
En@@ 497
sin@@ 493
Ma@@ 491
bec@@ 489
nor@@ 488
ann@@ 487
bri@@ 485
fer@@ 480
de, 480
200@@ 480
vol@@ 475
2 473
mach@@ 473
ok@@ 472
Chin@@ 472
leg@@ 471
m, 471
ter. 468
New 468
sor@@ 467
thre@@ 466
los@@ 463
eg@@ 463
aff@@ 461
Inter@@ 461
an. 460
net@@ 459
techn@@ 458
perc@@ 458
mit@@ 454
de. 452
eh@@ 451
tell@@ 450
ie 450
comm@@ 449
ell 447
ung 447
per 446
illion 441
wal@@ 441
ivers@@ 440
wan@@ 440
Her@@ 437
20@@ 435
00@@ 432
fir@@ 430
ter, 429
lang@@ 428
af@@ 425
that@@ 424
vers@@ 419
chit@@ 418
dar@@ 418
bar@@ 418
ger@@ 417
ale 411
m. 406
ere 401
hr@@ 398
Bu@@ 398
rat@@ 394
100 394
iel@@ 393
dig@@ 390
Ro@@ 389
ick@@ 384
' 384
des 381
ack@@ 380
call@@ 378
nu@@ 377
oh@@ 375
ank 373
uter 373
tun@@ 371
st. 370
ori@@ 370
,@@ 362
stat@@ 360
[@@ 358
em 355
ch, 354
ut 354
8 353
lan@@ 351
ung@@ 346
den 341
Ar@@ 338
TE@@ 337
tl@@ 330
dur@@ 328
hol@@ 326
dre@@ 325
] 316
Wor@@ 314
kl@@ 312
ur 311
ich 306
ka@@ 306
Z@@ 305
ich@@ 305
bel@@ 304
wit@@ 303
fro@@ 302
ik@@ 298
ft@@ 296
wei@@ 295
vor@@ 294
ben@@ 293
Bo@@ 288
was, 288
ologi@@ 287
net 287
mm@@ 284
Au@@ 282
Re@@ 279
amer@@ 276
1 275
thr@@ 275
3 274
Li@@ 273
7 272
fas@@ 272
tho@@ 271
ever@@ 271
ob 270
4 269
sag@@ 266
Afri@@ 266
6 265
ster@@ 265
ld 264
tern 261
bein@@ 259
ffer@@ 257
men 253
alk 253
dies 252
Su@@ 248
Di@@ 247
bin@@ 246
ni@@ 244
Par@@ 243
S 240
Po@@ 240
Le@@ 238
u 237
V 234
Sp@@ 232
Bi@@ 229
ens@@ 228
ern@@ 227
hab@@ 226
Ex@@ 222
war 220
ts@@ 219
ster 217
lli@@ 217
Pro@@ 211
sam@@ 211
Ge@@ 211
eu@@ 209
fall@@ 209
gen 208
amm@@ 208
mal 208
gan@@ 207
Ho@@ 207
!@@ 206
9 206
enn@@ 204
Se@@ 204
ank@@ 204
ble@@ 202
Mon@@ 197
Me@@ 197
Ne@@ 195
bring@@ 190
dam@@ 189
ild@@ 188
Be@@ 185
ier@@ 184
fe 183
It@@ 183
dern 181
fan@@ 181
tit@@ 178
t: 176
D 175
ould 175
erg@@ 168
imm@@ 167
rip@@ 167
ete 164
enge 164
Wel@@ 160
Ph@@ 159
mit 159
Ta@@ 159
wir@@ 158
unter@@ 158
Mus@@ 157
ole 157
For@@ 156
Or@@ 156
die 155
ier 154
/@@ 154
chil@@ 153
sten 149
im 146
Ab@@ 145
ist, 145
Gen@@ 145
gel@@ 143
X@@ 143
ade 142
ause 142
z 141
Ver@@ 138
dies@@ 137
Fr@@ 137
C 136
un, 134
err@@ 133
ste 132
lob@@ 131
Nat@@ 130
T 128
anz@@ 128
hei@@ 125
tes 124
Per@@ 124
Univers@@ 124
War@@ 124
arb@@ 120
ist. 119
te, 119
Qu@@ 119
Ger@@ 118
rich@@ 116
Sch@@ 115
da 114
ein 114
Des@@ 112
ern 110
unk@@ 110
ich, 109
zen 106
omm@@ 106
eig@@ 105
tig@@ 105
Was@@ 104
neu@@ 104
ert 104
Si@@ 103
en? 102
Sy@@ 101
Gr@@ 100
je@@ 99
Ein@@ 99
frag@@ 97
q@@ 96
wo 95
$@@ 91
ander@@ 91
thei@@ 89
Fo@@ 88
zi@@ 86
P 85
litt@@ 84
war. 83
eil@@ 82
Bec@@ 81
K 81
nex@@ 79
Min@@ 79
sai@@ 77
rie@@ 76
]@@ 74
O 73
uns 69
Fre@@ 69
war, 65
te. 64
den, 62
vor 62
gh 61
hin@@ 60
Stu@@ 60
Te@@ 59
B 58
seh@@ 58
ten, 57
wen@@ 57
E 56
Q@@ 55
q 55
..@@ 54
X 54
enz@@ 54
eit@@ 53
gar 50
gib@@ 48
Ber@@ 48
den. 48
Comp@@ 47
M 46
R 46
aten 45
?@@ 43
Techn@@ 43
&@@ 43
Gl@@ 43
:@@ 43
uns@@ 43
andel@@ 42
scrip@@ 41
;@@ 41
hier@@ 41
lei@@ 41
Was 40
ound 40
does@@ 40
L 39
rank@@ 39
sen 39
G 39
N 39
- 37
v 37
ung, 36
erk@@ 35
ten. 35
betwe@@ 34
ein, 34
en: 33
lie@@ 32
[ 32
chen 31
ig 30
Kon@@ 30
zu@@ 30
Art 29
eil 29
hn@@ 28
wich@@ 28
ou 27
Tran@@ 26
F 26
H 26
au 25
tz@@ 25
isch@@ 25
rei@@ 25
ung. 24
Man 24
iel 24
Sta@@ 23
ehr@@ 23
Y 23
Plan@@ 23
ann 23
ko@@ 22
Er@@ 22
ats@@ 22
Also 22
Q 21
wa 21
Wis@@ 21
Kin@@ 21
000 20
agen 20
Mit@@ 20
é@@ 19
nd 18
Sub@@ 18
% 18
+ 18
Ide@@ 17
U 17
olo@@ 17
te: 16
ser 16
Milli@@ 16
) 16
Z 16
ih@@ 16
du 16
hat, 15
rech@@ 15
Bei@@ 15
such@@ 15
stell@@ 15
das@@ 15
ache 15
/ 15
hat 14
eit 14
enn 14
Leb@@ 13
W 13
bin 13
aus 13
Wei@@ 13
chn@@ 13
iger 13
titles 13
Wir@@ 12
von 12
elle 12
J 12
lich@@ 11
mei@@ 11
#@@ 11
geb@@ 11
nich@@ 10
wick@@ 10
ahr@@ 10
é 10
Reg@@ 10
– 9
tier@@ 9
á@@ 9
gut 9
ö@@ 9
— 9
sen, 8
pf@@ 8
Gel@@ 8
weil 7
zur@@ 7
woll@@ 7
j 7
bis 7
blem@@ 7
lich 7
kon@@ 6
liche 6
zwei@@ 6
che 6
hat. 6
Nach@@ 6
Proz@@ 6
omp@@ 6
hl@@ 6
Rau@@ 6
ó 6
@@@ 6
deck@@ 6
unter 6
ù 5
ende 5
das 5
sen. 5
erst@@ 5
leb@@ 5
ben 4
ù@@ 4
(@@ 4
ik 4
+@@ 4
Problem@@ 4
ñ@@ 4
í@@ 4
einer 4
eich@@ 4
auf@@ 4
Amer@@ 4
Zu@@ 4
sie 4
ü@@ 4
zu 4
è@@ 4
erz@@ 4
ã@@ 4
Jah@@ 4
tige 3
asch@@ 3
gend@@ 3
nun 3
etz@@ 3
bau@@ 3
dem 3
sein@@ 3
sein, 3
geh@@ 3
ó@@ 3
schen 3
aus. 3
ä@@ 3
^@@ 3
tun 3
ahl@@ 3
eten 2
Arb@@ 2
â@@ 2
ï@@ 2
Das 2
=@@ 2
“@@ 2
” 2
brach@@ 2
–@@ 2
mir 2
heit 2
* 2
É@@ 2
für 2
eine 2
fen 2
nach@@ 2
alles 2
ć 1
doch 1
utz@@ 1
ei 1
Geb@@ 1
nah@@ 1
Ich 1
habe 1
ú@@ 1
schl@@ 1
einz@@ 1
gef@@ 1
Aus@@ 1
alen 1
schn@@ 1
º@@ 1
’ 1
…@@ 1
ganz 1
sein 1
ische 1
wird 1
fahr@@ 1
weise 1
gesch@@ 1
durch 1
isch 1
kei@@ 1
einen 1
mensch@@ 1
neue 1
ungen 1
mög@@ 1
aber 1
ò@@ 1
à@@ 1
ê@@ 1
Ding@@ 1
aus, 1
√@@ 1
±@@ 1
%@@ 1
—@@ 1
ungs@@ 1
£@@ 1
gab 1
# 1
rach@@ 1
auf 1
ā@@ 1
ç@@ 1
Ç@@ 1
ön@@ 1
weg@@ 1
igen 1
immer 1
tet 1
seine 1
ör@@ 1
bei@@ 1
dass 1
= 1
bei 1
aub@@ 1
à 1
icht@@ 1
