the 78215
to 47090
a 46038
of 45579
and 39957
in 32040
that 28618
I 26079
is 25524
c@@ 23813
you 21100
, 20112
And 19039
s 18295
. 18223
we 16739
it 15536
ed 15446
in@@ 14675
o@@ 14650
this 14446
ing 13979
s@@ 13722
-- 13641
p@@ 13310
es 12923
e, 12763
y 12608
on 12576
e@@ 12490
f@@ 11896
t 11756
e. 11678
are 11357
d@@ 11086
t@@ 11005
was 10997
a@@ 10677
ar@@ 10544
al 10529
re@@ 10409
for 10367
on@@ 10294
b@@ 10260
have 10234
s, 9946
i@@ 9942
s. 9867
w@@ 9571
an 9566
h@@ 9499
u@@ 9284
m@@ 9057
at@@ 9024
with 8991
y@@ 8942
e 8577
at 8547
-@@ 8486
l@@ 8402
or@@ 8288
as 8248
li@@ 8115
about 8114
they 8107
st@@ 8080
v@@ 7986
al@@ 7922
can 7915
all 7870
g@@ 7828
what 7825
be 7822
en@@ 7696
an@@ 7559
or 7465
"@@ 7357
one 7315
r@@ 7219
n@@ 7199
de@@ 7185
un@@ 7087
not 6837
S@@ 6646
th@@ 6559
is@@ 6514
di@@ 6387
ac@@ 6373
con@@ 6341
ch@@ 6263
d 6262
ic@@ 6210
do 6137
y. 5923
ou@@ 5799
from 5776
it's 5737
So 5712
to@@ 5702
se@@ 5681
? 5584
y, 5578
: 5512
it@@ 5509
like 5466
er 5436
my 5402
mo@@ 5394
so 5382
as@@ 5366
et@@ 5362
am@@ 5307
ro@@ 5230
very 5230
The 5219
just 5163
el@@ 5162
ly 5157
er@@ 5028
but 5021
d, 4988
out 4892
people 4890
t, 4849
k@@ 4849
our 4755
ag@@ 4745
C@@ 4734
if 4722
es, 4693
going 4685
But 4673
these 4609
ve 4604
ur@@ 4571
ec@@ 4569
A@@ 4531
es. 4530
es@@ 4515
ul@@ 4497
t. 4479
le@@ 4470
em@@ 4465
il@@ 4449
pro@@ 4419
si@@ 4392
ver@@ 4381
co@@ 4364
ti@@ 4312
by 4282
su@@ 4223
ol@@ 4223
ra@@ 4219
d. 4198
ir@@ 4187
po@@ 4186
bo@@ 4163
ent@@ 4145
which 4138
lo@@ 4122
ma@@ 4119
me@@ 4098
he 4067
vi@@ 4063
ate 4053
l 4045
p 4039
." 4014
because 4009
ts 4002
ri@@ 3977
ation 3971
get 3969
no@@ 3967
there 3933
ter@@ 3922
had 3898
We 3898
pl@@ 3898
up 3891
D@@ 3839
when 3831
per@@ 3795
This 3750
ent 3727
think 3718
ex@@ 3671
your 3671
how 3665
would 3640
se 3633
qu@@ 3631
om@@ 3618
I'm 3575
see 3575
really 3567
m 3566
ds 3553
It's 3548
H@@ 3539
B@@ 3535
wh@@ 3533
more 3515
o 3472
ar 3461
for@@ 3414
sp@@ 3413
k 3378
were 3363
has 3342
their 3340
h 3338
's 3327
thing 3297
who 3265
ad@@ 3255
king 3236
do@@ 3212
1@@ 3206
en 3190
ta@@ 3186
ce 3182
some 3166
O@@ 3131
where 3113
You 3109
M@@ 3101
into 3090
that's 3082
don't 3067
then 3052
ap@@ 3042
th 3008
ab@@ 3000
me 2996
L@@ 2994
im@@ 2966
ne@@ 2950
P@@ 2947
go@@ 2937
j@@ 2930
will 2923
res@@ 2904
sh@@ 2903
us 2890
them 2878
wor@@ 2873
It 2858
ity 2833
♫ 2830
actually 2825
way 2824
ic 2817
sa@@ 2810
E@@ 2807
T@@ 2797
N@@ 2761
us@@ 2754
ci@@ 2753
ph@@ 2748
So, 2743
ing, 2741
ut@@ 2736
ting 2718
all@@ 2703
n 2699
know 2677
W@@ 2662
tr@@ 2661
ther@@ 2657
want 2653
te@@ 2652
go 2631
make 2618
tion 2583
could 2577
it. 2575
we@@ 2568
I@@ 2564
been 2561
w 2560
ing. 2550
cre@@ 2535
z@@ 2532
G@@ 2501
R@@ 2488
F@@ 2449
things 2449
other 2441
comp@@ 2432
ther 2430
le 2422
got 2408
par@@ 2394
be@@ 2394
ig@@ 2359
able 2347
ally 2328
um@@ 2321
little 2318
iz@@ 2307
dis@@ 2298
ch 2269
ad 2269
come 2261
au@@ 2258
bu@@ 2257
tri@@ 2247
than 2240
fe@@ 2232
our@@ 2222
most 2216
ure 2209
kind 2207
ha@@ 2191
tur@@ 2175
ving 2167
enc@@ 2162
da@@ 2160
know, 2151
x@@ 2150
iti@@ 2149
pre@@ 2136
something 2136
ing@@ 2132
gr@@ 2122
here 2115
J@@ 2110
ine 2100
e's 2085
They 2080
fac@@ 2077
ho@@ 2059
; 2056
his 2047
look 2043
ess 2033
stu@@ 2033
ely 2025
those 2021
ep@@ 2015
first 2013
two 2009
we're 2007
age 2004
mon@@ 1998
years 1996
new 1995
et 1969
com@@ 1958
ati@@ 1958
time 1953
so@@ 1949
ked 1940
no 1926
ted 1926
pa@@ 1907
year@@ 1906
only 1906
op@@ 1897
car@@ 1892
Th@@ 1886
k, 1886
a, 1884
now 1882
ks 1879
bl@@ 1868
said, 1854
ck@@ 1844
and@@ 1837
over 1828
also 1820
he@@ 1810
min@@ 1809
ous 1805
ist@@ 1804
In 1800
stor@@ 1797
oo@@ 1787
much 1777
str@@ 1775
gu@@ 1769
lot 1767
you@@ 1754
take 1748
world 1748
back 1744
ence 1741
fin@@ 1733
you're 1724
Now, 1720
every@@ 1718
ated 1718
est 1700
ple 1697
a. 1697
What 1693
ell@@ 1683
ers 1683
coun@@ 1673
up@@ 1666
und@@ 1662
war@@ 1660
any 1656
ght 1647
ill@@ 1639
0@@ 1636
it, 1635
pp@@ 1632
thing@@ 1630
hi@@ 1630
need 1629
ess@@ 1628
ob@@ 1628
bi@@ 1627
pe@@ 1624
K@@ 1619
put 1617
rec@@ 1614
many 1613
ents 1613
right 1609
wat@@ 1608
happ@@ 1604
tic@@ 1599
ves 1597
der 1589
oc@@ 1588
there's 1586
pres@@ 1581
tu@@ 1580
tra@@ 1579
inter@@ 1579
ten@@ 1577
tion@@ 1565
2@@ 1563
even 1556
she 1549
old 1540
la@@ 1538
sc@@ 1535
did 1533
sho@@ 1523
sol@@ 1521
on. 1520
work 1519
el 1517
ge 1515
any@@ 1506
st 1502
fi@@ 1492
rel@@ 1490
g 1489
ons 1487
her@@ 1485
gh@@ 1484
If 1484
pla@@ 1482
sur@@ 1480
around 1479
ed, 1476
ed. 1472
its 1472
on, 1465
er, 1465
pr@@ 1464
gi@@ 1463
eas@@ 1461
kno@@ 1457
man@@ 1455
c 1455
plan@@ 1452
every 1451
br@@ 1444
is, 1443
've 1442
tal@@ 1441
being 1438
ear@@ 1437
loo@@ 1435
through 1433
ful 1432
good 1430
them@@ 1429
ach@@ 1423
end 1420
pic@@ 1419
du@@ 1412
de 1412
gro@@ 1408
id@@ 1405
thin@@ 1402
ies 1401
Well, 1400
ally, 1398
they're 1397
k. 1396
different 1394
same 1392
ying 1390
wer@@ 1389
ble 1388
sim@@ 1382
gen@@ 1382
enti@@ 1379
.@@ 1375
use 1371
bas@@ 1369
mat@@ 1367
sci@@ 1357
ser@@ 1355
ang@@ 1349
ey@@ 1335
des@@ 1334
called 1331
o, 1326
down 1320
spec@@ 1318
doing 1318
inv@@ 1316
ved 1315
x 1313
ed@@ 1311
ber@@ 1309
col@@ 1309
sen@@ 1302
ei@@ 1295
A 1293
're 1288
tre@@ 1287
lear@@ 1287
ws 1284
That's 1283
anc@@ 1275
ty 1274
ter 1272
ans 1272
wa@@ 1269
f 1267
ast@@ 1265
I've 1263
der@@ 1259
en, 1259
ques@@ 1258
made 1257
gre@@ 1254
with@@ 1254
ation@@ 1253
day 1249
ru@@ 1247
He 1243
an, 1237
w. 1227
den@@ 1225
dic@@ 1218
her 1215
ating 1212
hel@@ 1210
three 1209
body 1206
sm@@ 1206
that, 1205
5@@ 1204
w, 1203
ide@@ 1200
ff@@ 1199
ber 1199
ys 1197
righ@@ 1188
sel@@ 1187
poin@@ 1187
some@@ 1186
say 1178
gra@@ 1172
end@@ 1168
ture 1168
fl@@ 1159
4@@ 1156
?" 1156
human 1152
te 1149
worl@@ 1148
ever 1148
lic@@ 1148
try 1147
happen@@ 1146
wi@@ 1142
V@@ 1140
fa@@ 1140
'll 1137
ation. 1135
wer 1131
There 1130
" 1130
pos@@ 1127
talk 1126
peopl@@ 1126
lif@@ 1121
ary 1119
ment 1118
3@@ 1112
tell 1109
We@@ 1108
ant 1106
life 1106
can@@ 1105
ation, 1104
men@@ 1100
er. 1098
ak@@ 1098
went 1097
ev@@ 1096
i 1094
why 1093
last 1090
mor@@ 1090
Y@@ 1084
olog@@ 1081
red 1078
ful@@ 1076
pri@@ 1076
am 1073
pe 1072
bra@@ 1063
find 1060
technolog@@ 1060
tro@@ 1059
eng@@ 1058
lin@@ 1057
hear@@ 1055
give 1051
sch@@ 1051
Wh@@ 1042
again@@ 1041
tt@@ 1035
ough 1030
didn't 1027
sort 1027
TED 1026
ical 1026
can't 1025
'@@ 1019
should 1016
bac@@ 1014
that. 1013
we've 1012
tim@@ 1008
,000 1008
great 1006
started 1006
side 1006
thou@@ 1005
als 1004
foo@@ 1002
ame 1001
big 1001
ous@@ 1001
har@@ 999
you. 999
soci@@ 998
show 995
percent 991
tor@@ 988
8@@ 980
cul@@ 978
plac@@ 978
say, 976
after 975
est@@ 974
form@@ 973
tin@@ 972
ke 972
19@@ 969
't 968
star@@ 968
sy@@ 966
eb@@ 965
imag@@ 959
compl@@ 957
used 957
problem@@ 956
sk@@ 956
lik@@ 954
of@@ 953
another 951
U@@ 945
own 945
ps 944
ast 943
under@@ 943
That 941
vir@@ 936
cor@@ 936
wing 936
mar@@ 936
6@@ 931
e? 931
re. 930
9@@ 927
never 927
self@@ 926
exam@@ 926
produc@@ 924
possi@@ 924
ite 923
An@@ 923
this. 922
duc@@ 917
nat@@ 914
change 913
start 913
other@@ 912
ey 911
tions 910
bit 909
vis@@ 909
ven 908
came 907
ong 907
kes 906
fam@@ 898
idea 898
might 898
real@@ 898
shi@@ 898
Americ@@ 897
ly, 897
," 896
ste@@ 895
whole 895
interes@@ 894
mem@@ 893
bre@@ 890
chang@@ 889
ge@@ 889
next 888
al, 888
ance 888
read@@ 887
ild 886
ations 884
num@@ 883
How 883
al. 882
ub@@ 882
pul@@ 882
tiv@@ 881
part 881
lar@@ 880
ant@@ 879
tion. 879
dat@@ 879
5 875
toge@@ 875
looking 874
here, 872
cent@@ 872
spac@@ 869
ity. 867
dy 867
few 867
en. 865
ect 861
does 854
ded 852
St@@ 852
exp@@ 852
ah@@ 852
ain@@ 851
Because 850
incre@@ 850
if@@ 848
here. 848
build@@ 843
ve, 843
mus@@ 843
world. 842
When 842
7@@ 841
wom@@ 840
ding 838
n't 837
ust 837
mark@@ 837
igh@@ 834
e-@@ 832
still 829
Now 828
each 827
comes 827
jec@@ 827
ning 825
gener@@ 823
secon@@ 823
acc@@ 823
commun@@ 821
ck 817
them. 816
tru@@ 815
fr@@ 814
Thank 812
design@@ 812
off 811
there. 808
the@@ 808
ft 807
Afric@@ 807
ari@@ 805
ros@@ 804
between 804
eff@@ 803
ice 802
system@@ 802
o. 802
abl@@ 801
et's 800
ges@@ 800
childr@@ 797
’@@ 797
million 796
ent. 795
way, 793
fri@@ 793
this, 793
re, 793
ve. 792
lu@@ 791
cer@@ 790
0 790
gl@@ 790
thought 789
doesn't 788
found 784
et. 777
um 775
oun@@ 775
organ@@ 774
ong@@ 772
tion, 770
time, 769
cap@@ 768
wanted 767
av@@ 767
said 766
vel@@ 766
ile 766
wn 765
ity, 765
reas@@ 763
ind 761
ort@@ 758
long 758
ep 756
bes@@ 756
ited 755
time. 754
! 753
ki@@ 752
struc@@ 751
tel@@ 751
ign@@ 750
proc@@ 750
thing. 750
ome 748
ty@@ 748
lea@@ 748
spe@@ 747
off@@ 747
t? 746
ili@@ 745
Talk 744
b 744
important 742
son 742
anim@@ 741
call 739
times 739
ran@@ 738
eri@@ 738
lat@@ 736
ybe 734
tly 733
exc@@ 733
me, 731
always 731
real 731
ys, 730
may 729
hum@@ 727
mis@@ 727
projec@@ 724
ke@@ 723
resp@@ 723
trying 722
out@@ 722
Ch@@ 720
OK@@ 719
et, 719
itu@@ 719
fre@@ 719
tic 717
hal@@ 715
Subtitles 713
Transcript: 713
sion 713
I'll 711
probab@@ 710
beh@@ 710
sub@@ 709
differ@@ 706
partic@@ 706
bus@@ 705
There's 703
self 702
mu@@ 701
ory 700
r 699
heal@@ 699
trans@@ 699
place 698
what's 697
low 697
dollar@@ 695
before 694
ten 694
10 694
dow@@ 693
ned 692
working 691
day, 690
better 690
took 688
'd 688
th. 686
ment@@ 686
energ@@ 685
econom@@ 685
No@@ 684
inc@@ 684
00 684
understand 683
ent, 682
coming 681
vie@@ 679
dri@@ 678
stand@@ 676
ass@@ 675
ouldn't 675
act 675
ack 674
quite 673
fact, 673
cle@@ 672
ie@@ 672
ris@@ 671
del@@ 671
ry 670
ans@@ 670
ligh@@ 670
four 669
These 669
ist 668
ically 665
bor@@ 664
getting 664
experi@@ 664
you, 663
Un@@ 663
in. 663
re 663
lec@@ 662
mer@@ 662
ga@@ 661
illi@@ 661
allo@@ 660
using 660
writ@@ 659
live 659
il 657
ational 657
high@@ 657
love 656
believe 656
ative 656
und 656
less 654
diti@@ 653
ue 652
connec@@ 652
fol@@ 652
Ear@@ 652
way. 651
char@@ 650
clo@@ 650
ion 649
fut@@ 649
my@@ 648
year 647
az@@ 646
val@@ 645
beau@@ 645
cur@@ 644
I'd 644
ough@@ 644
abili@@ 643
course, 643
ord@@ 643
id 642
develop@@ 642
done 640
inform@@ 639
ates 638
one. 638
ily 636
ali@@ 636
ach 635
Indi@@ 634
ven@@ 631
ver 631
som@@ 631
mom@@ 631
piec@@ 629
us. 628
One 628
son@@ 628
work@@ 628
ess. 628
ch. 628
ase 627
pho@@ 627
les 625
My 624
cl@@ 624
oll@@ 620
wel@@ 619
in, 619
tive 617
get@@ 617
expl@@ 616
mag@@ 614
and, 613
pat@@ 613
ens 612
ger 611
dr@@ 610
design 609
imp@@ 609
y? 609
sha@@ 608
ek@@ 606
fig@@ 604
You@@ 601
person@@ 599
hist@@ 598
lim@@ 596
ort 594
kin@@ 593
ts. 591
evol@@ 590
ysi@@ 589
nam@@ 587
ess, 587
n. 587
ight 580
poli@@ 577
In@@ 576
ms 576
sing@@ 574
ts, 574
system 574
Mar@@ 573
blem 570
onder@@ 570
was@@ 570
ef@@ 569
h, 567
sum@@ 566
vern@@ 565
cour@@ 561
stri@@ 561
glob@@ 560
don@@ 560
rit@@ 560
og@@ 560
inst@@ 559
beg@@ 557
tem@@ 557
e: 556
dro@@ 555
avi@@ 553
n, 553
sit@@ 553
us, 550
man 549
ir 547
bro@@ 545
is. 544
od 544
ns 542
hat@@ 540
ein@@ 539
por@@ 537
Mo@@ 534
ins 534
pas@@ 534
wis@@ 532
se, 530
Go@@ 529
las@@ 527
50 526
st, 526
20 526
... 525
medi@@ 523
fu@@ 523
they@@ 522
aus@@ 521
ze 520
so, 519
win@@ 519
ell, 515
ill 514
sto@@ 513
actu@@ 513
fil@@ 511
se. 510
pi@@ 509
om 509
hand@@ 504
exper@@ 504
ings 502
passi@@ 502
All 500
ken 500
En@@ 497
ard 495
sin@@ 493
Ma@@ 491
bec@@ 489
nor@@ 488
ann@@ 487
met@@ 486
bri@@ 485
app@@ 485
fer@@ 480
de, 480
200@@ 480
blo@@ 478
Al@@ 476
vol@@ 475
2 473
mach@@ 473
ok@@ 472
Chin@@ 472
leg@@ 471
m, 471
ter. 468
New 468
hy@@ 467
sor@@ 467
ition 466
thre@@ 466
los@@ 463
eg@@ 463
aff@@ 461
Inter@@ 461
an. 460
mas@@ 460
net@@ 459
techn@@ 458
perc@@ 458
mit@@ 454
de. 452
eh@@ 451
tell@@ 450
comm@@ 449
ell 447
per 446
ung 441
illion 441
wal@@ 441
ie 440
ff 440
ivers@@ 440
wan@@ 440
Her@@ 437
20@@ 435
gn@@ 433
00@@ 432
sion@@ 431
ution 430
fir@@ 430
ter, 429
lang@@ 428
af@@ 425
that@@ 424
togra@@ 423
vers@@ 419
chit@@ 418
dar@@ 418
bar@@ 418
import@@ 417
ger@@ 417
ale 411
belie@@ 407
m. 406
ere 401
age, 400
hr@@ 398
Bu@@ 398
ways 396
nov@@ 394
rat@@ 394
100 394
iel@@ 393
dig@@ 390
Ro@@ 389
sta@@ 388
ick@@ 384
' 384
des 381
ack@@ 380
ll@@ 379
call@@ 378
nu@@ 377
oh@@ 375
ank 373
uter 373
tun@@ 371
st. 370
ori@@ 370
ok 365
,@@ 362
30 360
stat@@ 360
[@@ 358
em 355
ch, 354
ut 354
8 353
lan@@ 351
tom@@ 347
ung@@ 346
den 341
beginn@@ 339
Ar@@ 338
Yor@@ 338
A: 336
inn@@ 332
tl@@ 330
TED@@ 329
ese 329
dur@@ 328
hol@@ 326
dre@@ 325
bet@@ 318
fel@@ 318
rop@@ 317
] 316
Wor@@ 314
kl@@ 312
ur 311
ich 306
ka@@ 306
ich@@ 305
bel@@ 304
wit@@ 303
fro@@ 302
Z@@ 299
ik@@ 298
ft@@ 296
wei@@ 295
bab@@ 295
befor@@ 295
vor@@ 294
oul@@ 294
ben@@ 293
sl@@ 289
Bo@@ 288
was, 288
ologi@@ 287
net 287
mm@@ 284
ye@@ 283
Au@@ 282
os@@ 280
Re@@ 279
amer@@ 276
1 275
thr@@ 275
3 274
Li@@ 273
7 272
fas@@ 272
tho@@ 271
ever@@ 271
ob 270
4 269
sag@@ 266
Afri@@ 266
6 265
ster@@ 265
ld 264
tern 261
bein@@ 259
ffer@@ 257
nec@@ 255
men 253
alk 253
dies 252
Su@@ 248
Di@@ 247
bin@@ 246
ni@@ 244
Par@@ 243
r. 242
S 240
Po@@ 240
Le@@ 238
u 237
V 234
tes@@ 232
Sp@@ 232
Bi@@ 229
ens@@ 228
dru@@ 228
ern@@ 227
hab@@ 226
To@@ 224
Ex@@ 222
will@@ 220
war 220
ts@@ 219
ster 217
lli@@ 217
Pro@@ 211
sam@@ 211
Ge@@ 211
eu@@ 209
fall@@ 209
mal@@ 209
gen 208
dn@@ 208
amm@@ 208
mal 208
gan@@ 207
Ho@@ 207
os 207
!@@ 206
9 206
devel@@ 205
enn@@ 204
Se@@ 204
ank@@ 204
ble@@ 202
Mon@@ 197
ign 197
Ne@@ 195
produ@@ 191
tn@@ 190
bring@@ 190
dam@@ 189
ll 188
ild@@ 188
stand 186
Be@@ 185
ier@@ 184
fe 183
It@@ 183
dern 181
fan@@ 181
Man@@ 180
tit@@ 178
t: 176
D 175
ould 175
mir@@ 168
erg@@ 168
imm@@ 167
rip@@ 167
der, 166
ete 164
enge 164
ging 164
sat@@ 161
Wel@@ 160
Ph@@ 159
mit 159
Ta@@ 159
wir@@ 158
unter@@ 158
Me@@ 158
Mus@@ 157
ole 157
For@@ 156
Or@@ 156
die 155
ier 154
/@@ 154
chil@@ 153
sten 149
um, 149
im 146
Ab@@ 145
econ@@ 145
ist, 145
Gen@@ 145
stru@@ 144
gel@@ 143
X@@ 143
ade 142
ause 142
z 141
Ver@@ 138
dies@@ 137
Fr@@ 137
C 136
un, 134
err@@ 133
ste 132
ollar 132
lob@@ 131
Nat@@ 130
spr@@ 129
T 128
anz@@ 128
hei@@ 125
tes 124
Per@@ 124
Univers@@ 124
War@@ 124
arb@@ 120
ist. 119
te, 119
Qu@@ 119
Ger@@ 118
Br@@ 118
rich@@ 116
Sch@@ 115
da 114
ein 114
Ob@@ 112
Des@@ 112
ern 110
unk@@ 110
ich, 109
zen 106
omm@@ 106
eig@@ 105
tig@@ 105
Was@@ 104
neu@@ 104
ert 104
Si@@ 103
en? 102
Gr@@ 100
je@@ 99
Ein@@ 99
Je@@ 98
frag@@ 97
q@@ 96
wo 95
$@@ 91
ander@@ 91
dn't 91
thei@@ 89
Fo@@ 88
zi@@ 86
P 85
litt@@ 84
war. 83
eil@@ 82
Bec@@ 81
K 81
nex@@ 79
Min@@ 79
sai@@ 77
rie@@ 76
Wo@@ 75
]@@ 74
O 73
uns 69
Sy@@ 69
Fre@@ 69
war, 65
te. 64
den, 62
vor 62
gh 61
fal@@ 61
hin@@ 60
Stu@@ 60
Te@@ 59
B 58
seh@@ 58
ne 57
ten, 57
wen@@ 57
Ant@@ 57
Fl@@ 56
E 56
Q@@ 55
q 55
Dan@@ 55
Kar@@ 55
..@@ 54
X 54
enz@@ 54
Ther@@ 51
gar 50
eit@@ 49
gib@@ 48
Ber@@ 48
den. 48
Comp@@ 47
M 46
R 46
aten 45
sei@@ 44
?@@ 43
Techn@@ 43
&@@ 43
Gl@@ 43
:@@ 43
uns@@ 43
andel@@ 42
scrip@@ 41
;@@ 41
hier@@ 41
lei@@ 41
Also, 40
Was 40
ound 40
does@@ 40
Medi@@ 39
L 39
rank@@ 39
sen 39
G 39
N 39
- 37
v 37
ung, 36
erk@@ 35
ten. 35
betwe@@ 34
ein, 34
en: 33
lie@@ 32
Syst@@ 32
[ 32
chen 31
ig 30
Kon@@ 30
zu@@ 30
Art 29
eil 29
hn@@ 28
wich@@ 28
ou 27
Tran@@ 26
F 26
H 26
au 25
isch@@ 25
rei@@ 25
ung. 24
tz@@ 24
Man 24
Sta@@ 23
ehr@@ 23
Y 23
Plan@@ 23
ann 23
ko@@ 22
Er@@ 22
ats@@ 22
iel 22
Also 22
Q 21
wa 21
Wis@@ 21
Kin@@ 21
Bil@@ 20
bis@@ 20
agen 20
Mit@@ 20
Aut@@ 19
000 19
é@@ 19
nd 18
Sub@@ 18
% 18
+ 18
Ide@@ 17
U 17
olo@@ 17
te: 16
ser 16
Milli@@ 16
best@@ 16
) 16
Z 16
ih@@ 16
du 16
hat, 15
Fil@@ 15
rech@@ 15
Bei@@ 15
such@@ 15
stell@@ 15
das@@ 15
ache 15
/ 15
hat 14
gab@@ 14
eit 14
enn 14
Leb@@ 13
W 13
bin 13
aus 13
Wei@@ 13
chn@@ 13
iger 13
titles 13
Wir@@ 12
von 12
elle 12
J 12
I'@@ 11
lich@@ 11
mei@@ 11
#@@ 11
geb@@ 11
at's 10
nie 10
dan@@ 10
nich@@ 10
wick@@ 10
ahr@@ 10
dab@@ 10
é 10
Reg@@ 10
– 9
tier@@ 9
á@@ 9
ollar@@ 9
gut 9
— 9
sen, 8
pf@@ 8
TE@@ 8
Gel@@ 8
ö@@ 8
weil 7
zur@@ 7
woll@@ 7
Bes@@ 7
j 7
bis 7
blem@@ 7
lich 7
kon@@ 6
dung 6
liche 6
zwei@@ 6
hat. 6
Nach@@ 6
Proz@@ 6
omp@@ 6
hl@@ 6
Rau@@ 6
ó 6
@@@ 6
deck@@ 6
unter 6
ù 5
che 5
ende 5
das 5
sen. 5
erst@@ 5
leb@@ 5
ben 4
ù@@ 4
(@@ 4
ik 4
+@@ 4
Problem@@ 4
ñ@@ 4
Sach@@ 4
í@@ 4
einer 4
eich@@ 4
auf@@ 4
Amer@@ 4
Zu@@ 4
sie 4
zu 4
è@@ 4
erz@@ 4
ã@@ 4
Jah@@ 4
tige 3
asch@@ 3
gend@@ 3
nun 3
etz@@ 3
glau@@ 3
bau@@ 3
dem 3
sein@@ 3
sein, 3
geh@@ 3
ó@@ 3
schen 3
aus. 3
Zeit@@ 3
ü@@ 3
Zei@@ 3
^@@ 3
tun 3
ahl@@ 3
ien 3
eten 2
Arb@@ 2
â@@ 2
ï@@ 2
spiel 2
Das 2
=@@ 2
“@@ 2
” 2
brach@@ 2
–@@ 2
mir 2
heit 2
* 2
É@@ 2
für 2
ä@@ 2
eine 2
fen 2
nach@@ 2
kun@@ 2
alles 2
.000 1
ć 1
doch 1
utz@@ 1
ei 1
Geb@@ 1
nah@@ 1
Ich 1
habe 1
ú@@ 1
schl@@ 1
einz@@ 1
gef@@ 1
Aus@@ 1
alen 1
schn@@ 1
º@@ 1
’ 1
…@@ 1
ganz 1
sein 1
ös@@ 1
ische 1
wird 1
fahr@@ 1
weise 1
gesch@@ 1
ütz@@ 1
welche 1
durch 1
isch 1
äs@@ 1
kei@@ 1
meinen 1
mensch@@ 1
neue 1
ungen 1
mög@@ 1
aber 1
ò@@ 1
à@@ 1
ê@@ 1
Ding@@ 1
heit@@ 1
aus, 1
√@@ 1
±@@ 1
%@@ 1
—@@ 1
ungs@@ 1
£@@ 1
gab 1
# 1
rach@@ 1
auf 1
ā@@ 1
ç@@ 1
Ç@@ 1
ön@@ 1
weg@@ 1
igen 1
immer 1
tet 1
seine 1
ör@@ 1
bei@@ 1
dass 1
= 1
bei 1
aub@@ 1
à 1
icht@@ 1
