die 42842
und 37597
der 31902
en 30046
t 28529
en, 26752
es 26029
in 24530
t@@ 23891
, 23589
k@@ 23193
en. 23035
das 22489
zu 22473
er@@ 22418
er 21862
ist 21548
. 20493
ich 19374
ten 19351
den 18878
wir 18486
S@@ 18201
f@@ 17791
te 17741
en@@ 16871
n@@ 16702
s@@ 16106
K@@ 15902
l@@ 15881
t, 15565
ein 15462
eine 15406
Und 15016
sie 14844
e 14731
an@@ 14664
Sie 14638
st@@ 14576
von 14558
z@@ 14495
d@@ 14424
B@@ 14323
M@@ 14226
D@@ 14196
m@@ 14080
dass 13663
t. 13450
ver@@ 13281
sch@@ 12961
g@@ 12605
h@@ 12359
F@@ 12321
e, 12041
b@@ 11913
r@@ 11854
nicht 11671
ge@@ 11404
ch@@ 11046
W@@ 10937
mit 10839
T@@ 10615
L@@ 10521
u@@ 10407
H@@ 10360
ung 10328
auf 10308
Ich 9856
o@@ 9828
al@@ 9726
wie 9559
ä@@ 9291
be@@ 9235
s 9185
ei@@ 9180
ü@@ 9153
um 9048
für 8930
au@@ 8887
sich 8751
in@@ 8701
es@@ 8562
ein@@ 8549
-@@ 8426
"@@ 8398
i@@ 8303
einen 8204
el@@ 8100
P@@ 8073
ar@@ 8031
g 7941
man 7931
N@@ 7763
an 7750
dem 7652
un@@ 7636
als 7601
Das 7402
w@@ 7305
R@@ 7207
A@@ 7153
li@@ 7045
et@@ 7038
m 6956
was 6918
at@@ 6883
ö@@ 6832
Es 6797
e@@ 6794
so 6783
G@@ 6759
gen@@ 6701
e. 6630
ent@@ 6590
ab@@ 6567
sp@@ 6551
or@@ 6530
re@@ 6526
a@@ 6519
Sch@@ 6490
lich 6274
sind 6271
Z@@ 6258
: 6209
diese 6136
des 6044
p@@ 6013
ier@@ 5943
im 5887
wenn 5821
haben 5812
E@@ 5741
l 5729
di@@ 5721
ri@@ 5664
ag@@ 5652
um@@ 5640
Wir 5635
zu@@ 5601
war 5507
ges@@ 5491
a 5487
einem 5391
Ver@@ 5330
einer 5295
über 5270
? 5247
is@@ 5221
ach@@ 5165
der@@ 5090
aus@@ 5086
on@@ 5038
gen 5000
il@@ 4957
am@@ 4873
O@@ 4849
aus 4835
n 4835
uns 4821
auf@@ 4782
it@@ 4776
de 4740
ig@@ 4734
ß@@ 4718
eh@@ 4705
J@@ 4696
em@@ 4671
ch 4660
-- 4615
ut@@ 4610
An@@ 4586
oder 4569
ra@@ 4477
ie 4474
bes@@ 4439
si@@ 4423
st 4401
wei@@ 4400
ter 4397
kl@@ 4395
le@@ 4368
sen 4353
Aber 4341
Die 4299
aber 4297
Er@@ 4287
V@@ 4284
St@@ 4250
ro@@ 4229
sag@@ 4215
te, 4213
auch 4207
om@@ 4094
ber@@ 4074
sehr 4073
ist, 4066
C@@ 4046
lich@@ 3968
ur@@ 3915
eit@@ 3909
all@@ 3909
hier 3896
ti@@ 3860
sten 3856
ol@@ 3855
j@@ 3839
stell@@ 3833
nur 3788
and 3750
ern@@ 3721
ben 3662
da@@ 3662
rei@@ 3654
r 3607
dann 3603
den@@ 3597
– 3589
y@@ 3576
- 3571
ung@@ 3555
as@@ 3522
ten, 3478
hat 3472
än@@ 3432
her@@ 3399
tr@@ 3397
I@@ 3393
In@@ 3385
vor@@ 3358
ungen 3288
v@@ 3284
über@@ 3268
dar@@ 3243
gibt 3227
d 3210
also 3208
gr@@ 3200
eich@@ 3197
noch 3187
ik@@ 3185
ter@@ 3177
dieser 3166
1@@ 3164
werden 3152
chen 3124
ul@@ 3090
us@@ 3088
s, 3086
ing@@ 3081
mich 3074
etwas 3046
am 3034
fin@@ 3030
nen 2983
eb@@ 2962
ff@@ 2960
geh@@ 2940
können 2912
kann 2888
z 2879
se 2876
nach 2874
le 2872
Pro@@ 2859
ischen 2845
eg@@ 2824
ische 2823
wird 2818
Wenn 2814
and@@ 2809
Menschen 2805
ck@@ 2786
habe 2784
ir@@ 2779
." 2760
f 2751
eu@@ 2721
ie@@ 2710
hal@@ 2709
♫ 2702
geb@@ 2697
Be@@ 2693
ten. 2690
mach@@ 2687
zi@@ 2687
ang@@ 2682
Ar@@ 2666
er, 2664
isch@@ 2663
wen@@ 2662
ek@@ 2660
bei 2655
lichen 2653
liche 2649
vor 2641
ör@@ 2628
Ge@@ 2624
äh@@ 2609
alle 2584
tig@@ 2573
und@@ 2564
wer@@ 2550
Gr@@ 2523
ru@@ 2518
Al@@ 2501
mehr 2501
ich@@ 2492
ün@@ 2451
te. 2441
Ein@@ 2429
wirklich 2403
gel@@ 2398
eines 2391
fü@@ 2390
sich@@ 2379
so@@ 2377
zum 2374
zen 2373
ft 2370
all 2355
d, 2350
ak@@ 2334
o 2328
Fr@@ 2320
groß@@ 2314
che 2306
mir 2299
ell@@ 2297
komm@@ 2293
ge 2278
je@@ 2276
Ihnen 2266
ten@@ 2257
wel@@ 2254
weil 2251
ben@@ 2247
Welt 2233
war@@ 2232
durch 2226
per@@ 2217
k 2197
enn@@ 2193
ist. 2181
br@@ 2174
mal 2154
.@@ 2147
de@@ 2145
unter@@ 2144
rich@@ 2140
gan@@ 2139
woll@@ 2137
immer 2134
gesch@@ 2134
lo@@ 2130
ist@@ 2122
dieses 2119
wor@@ 2108
U@@ 2106
s. 2101
" 2100
könn@@ 2097
wi@@ 2092
Er 2080
inn@@ 2077
Was 2075
fl@@ 2074
En@@ 2072
ungs@@ 2072
pp@@ 2069
du@@ 2069
sehen 2064
c@@ 2061
vi@@ 2057
ann@@ 2057
gef@@ 2056
gl@@ 2056
i 2033
hr@@ 2024
em 2016
th@@ 2012
ert 2010
wä@@ 2007
ent 2005
hin@@ 2002
viel 2001
eit 1994
ser@@ 1992
hat@@ 1992
bei@@ 1984
wir@@ 1980
be 1980
ste 1980
diesem 1973
ger@@ 1968
Au@@ 1968
ts 1964
keine 1950
to@@ 1948
Also 1947
den, 1946
ück@@ 1938
se@@ 1938
pr@@ 1933
hei@@ 1921
al 1920
nich@@ 1914
tz@@ 1914
keit 1914
Re@@ 1911
ken 1908
hä@@ 1900
wur@@ 1899
ander@@ 1895
te@@ 1894
rech@@ 1889
ke 1887
soll@@ 1878
diesen 1872
ess@@ 1872
we@@ 1871
da 1871
meine 1869
Sp@@ 1862
pl@@ 1852
Ges@@ 1852
ung, 1833
Kon@@ 1824
unsere 1823
ll@@ 1813
denk@@ 1803
ihre 1801
viele 1797
ann 1794
är@@ 1793
sen, 1792
Or@@ 1785
wo 1784
a, 1783
on 1781
utz@@ 1776
ation 1770
mit@@ 1758
ar 1752
ere 1752
ah@@ 1743
Leute 1742
sein 1738
for@@ 1737
im@@ 1731
es, 1730
führ@@ 1729
las@@ 1717
ß 1710
ho@@ 1700
ern 1694
änder@@ 1692
Der 1686
dr@@ 1681
sen@@ 1680
ür@@ 1671
gew@@ 1664
zwei 1654
äch@@ 1650
wür@@ 1647
Art 1643
den. 1639
Zu@@ 1634
wurde 1632
2@@ 1625
zeig@@ 1620
mer@@ 1614
amm@@ 1614
ne 1606
Aus@@ 1602
einfach 1602
age 1598
pf@@ 1597
pro@@ 1596
des@@ 1595
ap@@ 1594
ung. 1591
unk@@ 1588
is 1584
ati@@ 1583
Vor@@ 1579
n, 1576
eren 1573
haben, 1573
etz@@ 1571
kann@@ 1570
ex@@ 1568
dies 1559
jetzt 1558
äu@@ 1556
spiel@@ 1550
Wel@@ 1542
wis@@ 1541
In 1540
andere 1537
bin 1530
lie@@ 1530
ön@@ 1528
zur 1527
nach@@ 1527
d. 1524
op@@ 1523
lang@@ 1522
bis 1516
Zeit 1516
bring@@ 1515
u 1510
Leben 1510
tig 1508
Wie 1508
seh@@ 1507
Me@@ 1507
kommen 1505
Di@@ 1505
oh@@ 1501
heit 1493
anderen 1492
under@@ 1492
Ent@@ 1489
inter@@ 1481
ihr 1475
Ide@@ 1474
tu@@ 1472
3@@ 1466
men 1466
letz@@ 1458
n. 1457
ts@@ 1457
en? 1455
sel@@ 1452
das@@ 1448
Dinge 1446
bet@@ 1437
weg@@ 1422
auen 1420
agen 1419
sa@@ 1414
damit 1411
weiter@@ 1409
mus@@ 1407
Unter@@ 1397
Un@@ 1394
0@@ 1393
steh@@ 1391
kei@@ 1389
et, 1389
er. 1386
iert 1385
Jahren 1385
du 1385
ob@@ 1384
alles 1383
tel@@ 1382
de, 1378
eig@@ 1375
ige 1369
oll@@ 1366
Jahr@@ 1364
ing 1347
off@@ 1345
mei@@ 1345
Wis@@ 1336
schaf@@ 1333
schn@@ 1332
igen 1332
kon@@ 1327
Leb@@ 1325
haben. 1325
gi@@ 1321
kt 1320
Jahre 1317
ma@@ 1311
Her@@ 1311
Man 1310
passi@@ 1307
denen 1305
müssen 1305
ehr@@ 1303
tet 1303
schein@@ 1301
ass@@ 1299
bl@@ 1298
iel 1294
konn@@ 1293
ale 1292
bar@@ 1290
isch 1288
woh@@ 1288
hatte 1286
fol@@ 1283
neu@@ 1279
b 1278
Bei@@ 1275
h 1273
so, 1270
aten 1267
beg@@ 1266
sind, 1265
zusamm@@ 1260
ens@@ 1258
re 1256
Proz@@ 1255
hab@@ 1252
ih@@ 1252
ellen 1252
ehen 1248
mein 1247
denn 1247
Techn@@ 1244
fahr@@ 1235
machen 1232
sind. 1231
sehen, 1230
olog@@ 1226
mo@@ 1223
Ch@@ 1223
gu@@ 1220
macht 1218
no@@ 1217
el 1214
0 1213
end 1212
tim@@ 1212
elle 1212
an, 1212
eil@@ 1210
ieren 1208
lei@@ 1207
jem@@ 1206
ahr@@ 1203
gleich@@ 1203
schon 1200
eht 1200
Hier 1200
dig@@ 1199
waren 1195
sen. 1195
sol@@ 1188
äl@@ 1188
de. 1187
et. 1187
wissen 1184
ob 1183
x@@ 1183
ation@@ 1180
Mit@@ 1179
halb 1178
Geb@@ 1173
leb@@ 1173
wahr@@ 1172
muss 1170
unser@@ 1170
me 1166
ad@@ 1164
war, 1161
glaub@@ 1160
Ihr@@ 1159
form@@ 1157
jek@@ 1156
vielleicht 1154
erst@@ 1151
For@@ 1150
Mensch@@ 1149
Wei@@ 1149
selbst 1142
5 1139
senschaf@@ 1139
ück 1137
Gl@@ 1137
5@@ 1137
ens 1136
ganz 1136
irgend@@ 1134
ec@@ 1133
dort 1132
andel@@ 1130
or 1127
ihnen 1126
dern 1125
4@@ 1124
bin@@ 1124
Des@@ 1123
Ab@@ 1121
erk@@ 1121
einige 1119
Mo@@ 1118
Nach@@ 1117
at 1117
ich, 1116
est@@ 1115
werden. 1114
Nun, 1112
Sy@@ 1110
omm@@ 1105
ache 1103
Gel@@ 1102
schaft 1102
Auf@@ 1101
us 1100
ende 1100
Sta@@ 1098
y 1096
su@@ 1093
können. 1092
tatsächlich 1089
wieder 1086
man@@ 1084
fr@@ 1083
geht 1083
Mar@@ 1082
Inter@@ 1082
iel@@ 1076
Kin@@ 1075
fen 1072
ne@@ 1071
einz@@ 1071
dach@@ 1065
ha@@ 1064
; 1060
paar 1059
Gen@@ 1056
arbeit@@ 1055
tt@@ 1055
größ@@ 1053
werde 1049
drei 1048
bi@@ 1048
mein@@ 1045
qu@@ 1043
schaff@@ 1043
seine 1042
weise 1040
rit@@ 1040
ßen 1039
nah@@ 1039
zeu@@ 1038
imm@@ 1038
würde 1037
get@@ 1035
viel@@ 1034
TED 1031
nicht, 1029
ihn 1027
eigen@@ 1026
besch@@ 1026
Ih@@ 1021
unden 1021
ität 1018
iti@@ 1017
Ding@@ 1016
eri@@ 1015
Po@@ 1013
Mon@@ 1012
uns@@ 1012
heute 1011
tige 1009
unter 1008
lu@@ 1006
son@@ 1005
tun 1004
000 1004
ant@@ 1003
zei@@ 1003
rie@@ 1001
alen 1001
teil@@ 998
ze 997
tro@@ 994
en: 993
?" 993
entwickel@@ 991
Per@@ 991
Sie, 988
Um@@ 987
eten 986
möchte 986
tion 981
Diese 980
nun 976
eben 976
natür@@ 975
tion@@ 972
zwei@@ 969
str@@ 968
err@@ 964
bo@@ 964
ell 962
ild@@ 962
ph@@ 961
19@@ 960
hier@@ 959
rä@@ 957
icht 955
äng@@ 953
hör@@ 951
ahl@@ 950
entlich 949
Kinder 948
einf@@ 947
sein. 947
vom 945
meiner 944
Problem@@ 943
Ein 940
! 939
brauch@@ 939
Ü@@ 939
zurück@@ 938
st, 936
8@@ 934
Th@@ 934
tigen 933
ep@@ 932
neue 931
genau 930
gut 930
6@@ 929
og@@ 928
Dies 927
Geschichte 924
schl@@ 923
Le@@ 921
versteh@@ 920
erzähl@@ 920
lich, 918
det 917
Ber@@ 917
davon 917
Fre@@ 916
iger 914
tre@@ 913
unserer 910
ur 909
a. 906
enden 905
Jahr 905
ko@@ 905
durch@@ 903
ank@@ 901
Teil 900
kauf@@ 900
pe@@ 899
können, 898
zwischen 897
kam@@ 895
ort@@ 895
Arb@@ 894
an. 893
hat, 892
ihr@@ 891
kein 890
her 889
funktion@@ 888
frag@@ 887
sondern 884
näch@@ 883
ig 881
he 877
heraus@@ 877
k. 874
stän@@ 872
aup@@ 871
hn@@ 870
setz@@ 869
rach@@ 869
Nat@@ 869
arbei@@ 868
sein, 868
gib@@ 864
bau@@ 864
wirk@@ 862
anz@@ 860
äd@@ 859
brach@@ 856
Ma@@ 855
bedeut@@ 855
es. 854
ationen 853
darüber 850
ck 850
te: 848
tes 848
mensch@@ 848
Reg@@ 846
Ex@@ 845
schen 845
gerade 844
9@@ 844
wus@@ 844
Rau@@ 844
Bu@@ 843
Stu@@ 842
ni@@ 842
lan@@ 838
etzt 838
asch@@ 837
laub@@ 837
ser 833
fühl@@ 832
kommt 831
eil 827
gehen 826
ef@@ 826
Eine 824
icht@@ 823
Millionen 822
Milli@@ 822
ete 822
ok@@ 819
ei 819
Viel@@ 817
Mus@@ 817
doch 816
Als 813
kann. 812
Par@@ 811
versuch@@ 811
Wir@@ 810
schau@@ 810
t: 808
nehmen 807
verschie@@ 807
öff@@ 806
hat. 806
Bi@@ 806
aus, 804
sagen, 804
Gesch@@ 803
sagen 801
mm@@ 800
ohne 800
schie@@ 799
ran@@ 796
Gehir@@ 796
mö@@ 795
nehm@@ 795
it 794
We@@ 793
voll@@ 793
werden, 792
Ro@@ 792
m, 792
fall@@ 790
fan@@ 787
ta@@ 785
aus. 785
rank@@ 785
ganze 783
unde 782
et 780
ziemlich 780
sogar 780
zieh@@ 779
War@@ 779
kur@@ 778
machen. 778
ast 778
Mö@@ 777
ut 777
end@@ 777
ihren 773
7@@ 773
schei@@ 772
ließ@@ 771
glich@@ 769
win@@ 769
Plan@@ 767
gab 766
wird. 766
ign@@ 766
ik 766
während 765
mög@@ 764
erste 764
ster@@ 764
ein, 763
lin@@ 763
wichtig@@ 762
ic@@ 761
jeder 760
äm@@ 760
warum 759
etwa 759
Univers@@ 758
p 757
Go@@ 757
Afri@@ 756
möglich@@ 754
tier@@ 754
deck@@ 753
fer@@ 749
are 746
beh@@ 746
iz@@ 745
tern 744
Bo@@ 744
tun@@ 739
So 739
wich@@ 738
Talk 736
Geschich@@ 735
tur@@ 734
Comp@@ 734
ili@@ 731
enz@@ 730
'@@ 729
wie@@ 728
af@@ 726
t? 725
ild 725
la@@ 725
onen 724
star@@ 724
Ta@@ 720
st. 718
los@@ 718
as 717
hi@@ 715
Subtitles 713
Transcript: 713
itä@@ 712
Ger@@ 710
00 707
Ph@@ 706
on, 705
un, 702
ide@@ 697
vol@@ 693
me@@ 693
such@@ 688
Min@@ 688
oo@@ 688
chte 684
Y@@ 680
tl@@ 678
stat@@ 678
do@@ 677
ger 675
war. 669
Was@@ 667
blem 665
Fo@@ 665
ub@@ 664
Ö@@ 663
tra@@ 660
fe 660
... 657
A 657
müs@@ 654
al, 652
k, 650
Indi@@ 650
tell@@ 648
2 644
net@@ 643
ali@@ 642
ter, 640
ologi@@ 636
Ä@@ 635
Qu@@ 634
zur@@ 631
ach 628
ast@@ 627
onder@@ 626
son 626
ähl@@ 626
to 625
lli@@ 624
wick@@ 623
ins 623
leg@@ 621
tiv@@ 614
sk@@ 613
bel@@ 613
hl@@ 611
auch@@ 611
„@@ 611
tor@@ 607
ber 607
10 604
aff@@ 601
enge 600
itu@@ 600
ev@@ 598
ster 598
Li@@ 598
y, 597
ft@@ 596
nam@@ 594
est 590
erg@@ 590
sam@@ 589
wer 587
enn 582
ind 578
he@@ 576
amer@@ 573
üs@@ 569
men@@ 564
dam@@ 564
v 563
zus@@ 561
will 561
ord@@ 556
was, 555
lik@@ 554
Se@@ 551
20 549
ed 548
net 544
fre@@ 544
50 542
hel@@ 537
sin@@ 535
res@@ 531
gro@@ 529
wa@@ 528
Su@@ 525
pas@@ 525
ac@@ 517
chn@@ 514
and, 513
sy@@ 510
rat@@ 508
po@@ 504
ine 504
Amer@@ 503
on. 503
meh@@ 503
erz@@ 502
stand 501
re, 499
min@@ 499
No@@ 498
Wor@@ 496
ka@@ 493
our@@ 491
fas@@ 490
ate 487
8 486
Te@@ 486
enti@@ 483
bri@@ 481
uter 481
h, 479
se, 478
ill@@ 476
mor@@ 474
nor@@ 473
deut@@ 472
gra@@ 467
mu@@ 464
dies@@ 463
,@@ 462
ou@@ 462
3 460
ven 456
200@@ 456
tri@@ 455
tal@@ 454
dre@@ 452
hol@@ 449
ch, 449
e: 447
sion 447
per 442
sit@@ 438
ort 435
“ 432
4 430
ack@@ 429
fri@@ 428
ori@@ 427
tru@@ 426
ve 422
selb@@ 420
au 418
ari@@ 415
Ho@@ 412
m. 410
20@@ 410
sh@@ 408
co@@ 407
stru@@ 407
ter. 404
par@@ 403
6 402
chit@@ 402
lat@@ 397
Ne@@ 391
ick@@ 391
ysi@@ 391
system@@ 390
pa@@ 389
illi@@ 388
bu@@ 388
them@@ 387
was@@ 385
x 385
eng@@ 385
00@@ 384
New 384
sor@@ 382
öß@@ 381
7 380
eicht 375
al. 374
vers@@ 373
1 371
omp@@ 371
100 370
Chin@@ 370
ant 356
y. 356
tho@@ 355
interes@@ 353
ier 352
of@@ 350
ch. 350
TE@@ 350
's 345
mat@@ 343
the@@ 340
e-@@ 340
glob@@ 339
in, 336
gar 335
ation, 334
les 333
se. 333
arb@@ 332
ign 329
stri@@ 327
ess 325
OK@@ 324
wan@@ 320
wal@@ 319
stu@@ 318
% 317
neh@@ 316
har@@ 314
if@@ 314
ats@@ 313
sein@@ 311
organ@@ 308
fi@@ 307
system 302
off 300
spe@@ 300
rel@@ 299
ris@@ 297
S 296
ause 295
ds 293
stand@@ 292
diti@@ 292
eff@@ 291
ks 291
poli@@ 289
' 288
fu@@ 287
ank 282
re. 281
9 281
elleicht 278
o, 276
mis@@ 272
[@@ 271
ing, 268
ent. 267
ent, 262
Tran@@ 258
pri@@ 257
o. 256
!@@ 254
sto@@ 253
ative 252
is, 252
e? 251
tin@@ 251
ure 251
ion 251
ollar@@ 250
ver 249
zw@@ 248
ation. 248
del@@ 241
bas@@ 241
ame 240
pos@@ 238
ven@@ 238
sum@@ 237
olo@@ 236
Geh@@ 235
] 235
Si@@ 235
vis@@ 234
mon@@ 234
mag@@ 232
ty@@ 232
Jah@@ 231
techn@@ 230
dro@@ 228
plan@@ 227
evol@@ 227
az@@ 227
ans 224
ts. 223
pre@@ 223
in. 220
is. 219
tem@@ 219
enschaf@@ 217
inv@@ 216
go@@ 215
ir 213
gend@@ 213
av@@ 212
ers 212
bein@@ 210
lim@@ 209
one 209
aub@@ 208
— 208
ase 205
ed@@ 205
gh@@ 202
ce 200
mar@@ 198
tive 197
real@@ 197
up@@ 197
dri@@ 195
of 194
ing. 191
w. 190
gener@@ 188
eute 181
me, 181
?@@ 180
dis@@ 179
atsächlich 177
anc@@ 175
abl@@ 174
id@@ 174
hrend 170
wit@@ 170
imp@@ 170
“@@ 169
om 168
pi@@ 166
ey 166
ell, 161
w 159
ensch@@ 158
/@@ 157
ste@@ 156
–@@ 154
atsäch@@ 153
od 153
vir@@ 152
fe@@ 152
il 151
c 151
tion, 151
ance 150
C 150
bre@@ 149
it, 148
ci@@ 147
mark@@ 147
ill 146
ys 146
dur@@ 146
tion. 144
vie@@ 144
ome 142
ans@@ 142
ves 141
V 141
 @@ 140
dat@@ 137
lob@@ 136
I 130
D 127
ust 127
pul@@ 127
ther@@ 124
So, 124
ity 123
sm@@ 123
pres@@ 122
ational 119
ear@@ 117
th 116
..@@ 114
fro@@ 114
som@@ 113
T 112
design@@ 111
Sub@@ 111
ad 111
unktion@@ 109
technolog@@ 108
ons 107
ack 107
dy 105
ps 105
wei 104
thei@@ 103
ade 102
ite 102
ole 101
ry 100
don@@ 99
oc@@ 97
X@@ 97
it. 95
," 95
ong 95
same 94
ment@@ 93
ong@@ 93
igh@@ 93
exp@@ 93
ki@@ 92
ile 91
ese 91
Ther@@ 91
w, 90
ros@@ 90
lar@@ 90
The 90
stor@@ 90
ey@@ 89
pe 89
our 87
exper@@ 86
bra@@ 85
ffer@@ 85
energ@@ 83
than 81
nu@@ 81
ents 80
ld 78
trans@@ 78
Wh@@ 77
sim@@ 76
do 75
:@@ 73
problem@@ 71
nec@@ 71
P 70
here 70
ws 69
ty 68
fa@@ 67
nd 67
sub@@ 66
]@@ 66
the 66
fir@@ 65
O 65
ment 65
ies 64
ve, 64
sur@@ 64
wom@@ 63
sc@@ 62
rip@@ 61
ga@@ 61
vel@@ 60
It@@ 60
N 60
entwick@@ 58
hum@@ 58
these 57
ple 57
go 57
ther 56
%@@ 56
fac@@ 56
” 55
by 55
wa 55
how 54
ivers@@ 54
ain@@ 54
old 54
lear@@ 54
rec@@ 54
ll 53
wat@@ 53
ic 52
E 52
econ@@ 52
B 51
kes 50
mem@@ 49
king 48
over 48
blem@@ 47
get 47
were 47
col@@ 46
,000 46
comp@@ 45
X 44
ever@@ 44
K 44
Bec@@ 44
ary 43
♪ 42
use 42
… 42
ence 41
con@@ 41
sho@@ 40
nat@@ 40
oun@@ 39
$@@ 39
car@@ 38
ve. 38
Q@@ 38
enc@@ 38
tic@@ 37
com@@ 37
ly 37
&@@ 37
thin@@ 36
ziem@@ 36
bac@@ 36
ble 36
its 36
any@@ 35
é@@ 35
L 35
R 34
ke@@ 34
wn 34
bit 33
M 33
dic@@ 33
pla@@ 33
$ 33
anim@@ 33
Americ@@ 33
right 32
kno@@ 32
G 32
my 31
[ 31
see 30
cre@@ 30
lic@@ 30
oul@@ 30
tit@@ 30
can@@ 29
W 28
way 28
U 28
ble@@ 28
num@@ 27
fam@@ 27
á@@ 26
e's 25
F 25
jec@@ 25
real 25
H 24
ity, 24
up 24
´@@ 24
ye@@ 24
ep 23
»@@ 23
½ 23
gh 23
for 22
q@@ 22
able 22
ous@@ 22
then 22
bab@@ 22
’@@ 21
ity. 21
we 20
°@@ 20
foo@@ 20
cul@@ 20
ok 19
é 19
righ@@ 19
still 19
big 19
β@@ 19
bec@@ 18
differ@@ 18
other@@ 18
lif@@ 18
shi@@ 18
«@@ 17
put 17
—@@ 16
kön@@ 16
can 16
Y 16
illion 16
chang@@ 16
/ 16
;@@ 16
« 16
kind 15
Q 15
side 15
ight 14
last 14
‟ 14
litt@@ 14
duc@@ 13
ed, 13
spac@@ 13
day 13
= 13
‘ 13
‚@@ 13
ó@@ 13
out 13
ally 13
Z 13
ous 13
J 12
² 12
ñ@@ 12
cor@@ 11
ice 11
back 11
ou 11
» 11
ound 11
read@@ 11
more 11
ever 11
chil@@ 11
red 11
ght 10
‘@@ 10
poin@@ 10
We 10
”@@ 10
) 10
+ 10
own 10
part 9
ical 9
coun@@ 9
gre@@ 9
ving 9
ways 9
not 9
ding 9
any 9
has 9
self@@ 8
cent@@ 8
ations 8
ould 8
ting 8
ough 8
now 8
#@@ 8
ated 8
j 8
acc@@ 8
work 8
cer@@ 7
ü 7
ful 7
very 7
time 7
They 7
loo@@ 7
What 7
♫@@ 7
soci@@ 7
sort 7
And 7
belie@@ 7
pic@@ 7
life 7
tell 7
ed. 7
but 7
alk 7
imag@@ 7
ited 6
nex@@ 6
@@@ 6
eas@@ 6
your 6
ó 6
she 6
if 5
way, 5
sai@@ 5
=@@ 5
wh@@ 5
(@@ 5
à 5
his 5
è@@ 5
you 5
thr@@ 5
ture 5
Now 5
reas@@ 5
start 4
ating 4
you@@ 4
no 4
…@@ 4
´ 4
í@@ 4
sci@@ 4
ning 4
+@@ 4
possi@@ 4
’ 4
cour@@ 4
° 4
after 4
here, 4
say 4
`@@ 4
had 4
You 4
you. 4
This 4
lot 4
here. 4
›@@ 4
cap@@ 4
ely 4
ying 4
ã@@ 4
It 4
¼ 3
some 3
perc@@ 3
show 3
²@@ 3
ted 3
œ@@ 3
try 3
¥ 3
human 3
ç@@ 3
're 3
with 3
talk 3
thou@@ 3
have 3
™ 3
½@@ 3
à@@ 3
q 3
â@@ 3
‹@@ 3
^@@ 3
tions 2
got 2
š@@ 2
worl@@ 2
  2
Afric@@ 2
It's 2
come 2
ect 2
When 2
♪@@ 2
only 2
every 2
at's 2
spec@@ 2
other 2
If 2
that@@ 2
É@@ 2
don't 2
plac@@ 2
^ 2
ked 2
million 2
@@ 2
happ@@ 2
` 2
„ 2
ques@@ 1
ć@@ 1
That 1
ful@@ 1
¾ 1
How 1
compl@@ 1
import@@ 1
down 1
thing 1
that's 1
first 1
that 1
take 1
make 1
want 1
much 1
ú@@ 1
* 1
á 1
good 1
from 1
³ 1
why 1
call@@ 1
)@@ 1
© 1
€ 1
ly, 1
Now, 1
little 1
® 1
ê@@ 1
‹ 1
even 1
et's 1
new 1
like 1
@ 1
they 1
find 1
к@@ 1
ë@@ 1
toge@@ 1
£ 1
ā@@ 1
Ç@@ 1
went 1
ï@@ 1
commun@@ 1
*@@ 1
when 1
， 1
build@@ 1
childr@@ 1
I've 1
î@@ 1
ø@@ 1
β 1
