the 78215
to 47087
of 45579
a 44109
and 39401
in 30252
that 28618
I 25699
is 25350
you 21100
And 19039
we 16739
it 15536
this 14446
-- 13641
on 11595
was 10997
ed 10777
are 10413
for 10367
have 10234
. 10134
, 10037
ing 9823
s 9096
with 8991
at 8547
es 8165
about 8114
they 8107
an 7933
can 7915
as 7876
what 7825
be 7822
s@@ 7494
all 7179
e. 7034
s, 6900
y 6860
c@@ 6859
in@@ 6638
e, 6630
not 6543
al 6538
or 6524
s. 6391
one 6313
re@@ 6153
do 6137
-@@ 6023
from 5776
it's 5737
So 5712
p@@ 5650
ar@@ 5490
like 5466
my 5402
"@@ 5395
so 5382
very 5230
t@@ 5201
just 5163
a@@ 5113
e@@ 5053
st@@ 5026
but 5021
d@@ 5011
i@@ 4983
people 4890
y@@ 4887
The 4886
our 4755
if 4722
going 4685
But 4673
b@@ 4643
these 4609
y, 4568
f@@ 4543
m@@ 4378
out 4347
by 4282
t 4270
en@@ 4231
e 4201
n@@ 4194
es, 4194
y. 4191
es. 4158
an@@ 4154
on@@ 4140
which 4138
li@@ 4135
it@@ 4104
v@@ 4098
r@@ 4096
: 4066
? 4047
o@@ 4043
because 4009
get 3969
there 3933
had 3898
We 3898
up 3891
or@@ 3890
al@@ 3832
when 3831
at@@ 3820
de@@ 3807
ac@@ 3775
This 3750
think 3718
h@@ 3674
your 3671
how 3665
would 3640
er 3625
he 3593
I'm 3575
see 3575
really 3567
It's 3548
more 3515
S@@ 3510
w@@ 3509
g@@ 3483
con@@ 3478
ts 3420
were 3363
has 3342
their 3340
who 3265
t, 3261
l@@ 3253
ation 3246
di@@ 3210
un@@ 3200
some 3166
ic@@ 3136
C@@ 3129
where 3113
You 3109
t. 3103
d. 3103
d, 3095
into 3090
that's 3082
don't 3067
then 3052
u@@ 3012
me 2996
ro@@ 2993
." 2966
will 2923
ly 2901
es@@ 2891
em@@ 2891
us 2887
them 2878
It 2858
♫ 2830
actually 2825
ri@@ 2796
ent 2785
et@@ 2750
ch@@ 2747
So, 2743
ing, 2741
ate 2700
se@@ 2678
know 2677
er@@ 2672
want 2653
go 2631
el@@ 2628
make 2618
could 2577
it. 2575
been 2561
ing. 2550
am@@ 2542
mo@@ 2528
ag@@ 2523
co@@ 2500
qu@@ 2492
ul@@ 2490
A@@ 2488
k@@ 2486
th@@ 2469
ad@@ 2461
things 2449
si@@ 2448
other 2441
d 2438
lo@@ 2416
got 2408
to@@ 2399
as@@ 2390
no@@ 2373
ve 2367
is@@ 2366
's 2365
able 2347
ent@@ 2344
way 2330
little 2318
B@@ 2277
P@@ 2259
le@@ 2255
than 2240
sh@@ 2218
ex@@ 2217
kind 2207
D@@ 2191
bo@@ 2171
par@@ 2157
know, 2151
po@@ 2148
something 2136
E@@ 2133
here 2115
ic 2109
il@@ 2104
They 2080
ab@@ 2068
T@@ 2057
for@@ 2050
his 2047
look 2043
those 2021
us@@ 2020
ally 2013
first 2013
two 2009
we're 2007
age 2004
years 1996
M@@ 1989
om@@ 1980
ity 1974
time 1953
thing 1937
ur@@ 1927
no 1926
ra@@ 1923
ol@@ 1909
m 1908
only 1906
pl@@ 1900
p 1889
a, 1882
now 1882
do@@ 1869
pro@@ 1863
tion 1861
; 1855
said, 1854
ap@@ 1852
N@@ 1832
over 1828
also 1820
ous 1805
ter@@ 1800
In 1800
ou@@ 1798
ing@@ 1790
per@@ 1784
ec@@ 1783
most 1778
much 1777
L@@ 1776
lot 1767
be@@ 1756
take 1748
world 1748
ting 1745
back 1744
W@@ 1740
o 1728
you're 1724
ti@@ 1722
Now, 1720
a. 1697
come 1694
com@@ 1694
sp@@ 1687
ers 1683
ma@@ 1681
R@@ 1672
new 1671
im@@ 1660
H@@ 1660
th 1657
ds 1646
1@@ 1645
car@@ 1643
h 1639
it, 1635
we@@ 1635
need 1629
put 1617
many 1613
right 1609
l 1605
tr@@ 1594
res@@ 1590
there's 1586
op@@ 1575
ep@@ 1574
ph@@ 1568
O@@ 1557
even 1556
she 1549
ci@@ 1540
la@@ 1538
did 1533
dis@@ 1531
ne@@ 1522
work 1519
ar 1506
z@@ 1499
ho@@ 1493
ons 1487
If 1484
ver@@ 1483
What 1482
around 1479
ed, 1476
ed. 1472
its 1472
est 1469
k 1467
um@@ 1461
every 1451
is, 1443
being 1438
through 1433
good 1430
ated 1423
de 1412
any 1409
they're 1397
different 1394
G@@ 1393
ine 1393
same 1392
te@@ 1389
I@@ 1386
pa@@ 1385
ted 1383
ce 1382
use 1371
fin@@ 1368
ha@@ 1365
x@@ 1363
cre@@ 1363
ess@@ 1355
F@@ 1347
called 1331
on. 1330
down 1320
doing 1318
ved 1315
man@@ 1315
sc@@ 1315
su@@ 1309
ck@@ 1301
pres@@ 1297
on, 1291
bl@@ 1291
That's 1283
go@@ 1283
pre@@ 1274
wor@@ 1273
str@@ 1271
wa@@ 1269
ir@@ 1266
I've 1263
so@@ 1260
made 1257
er, 1255
ch 1253
le 1252
He 1243
me@@ 1239
min@@ 1228
wh@@ 1227
sho@@ 1226
2@@ 1215
her 1215
ating 1212
sol@@ 1210
three 1209
that, 1205
ut@@ 1196
tic@@ 1185
K@@ 1184
say 1178
plan@@ 1174
gra@@ 1172
end 1171
n 1167
inter@@ 1167
king 1165
rec@@ 1157
se 1156
gu@@ 1153
ess 1152
human 1152
lic@@ 1148
?" 1147
wi@@ 1142
ely 1141
ist@@ 1141
ation. 1135
fac@@ 1132
There 1130
tri@@ 1130
ents 1126
talk 1126
da@@ 1120
A 1117
ill@@ 1114
tell 1109
pe@@ 1109
sa@@ 1108
ant 1106
life 1106
ation, 1104
Well, 1100
ying 1099
all@@ 1098
ak@@ 1098
went 1097
ks 1096
ev@@ 1096
i 1093
why 1093
last 1090
mor@@ 1090
and@@ 1088
red 1078
gen@@ 1078
am 1073
ence 1064
find 1060
any@@ 1060
lin@@ 1057
give 1051
tre@@ 1046
pic@@ 1044
gre@@ 1038
comp@@ 1033
J@@ 1031
didn't 1027
sort 1027
TED 1026
ical 1026
can't 1025
war@@ 1021
et 1020
'@@ 1019
should 1016
anc@@ 1016
that. 1013
fe@@ 1013
we've 1012
tim@@ 1008
,000 1008
great 1006
started 1006
col@@ 1002
gr@@ 1001
big 1001
you. 999
ast@@ 997
show 995
des@@ 993
percent 991
ad 990
.@@ 989
sur@@ 989
tra@@ 984
k. 982
ter 979
cul@@ 978
say, 976
after 975
ke 971
g 964
rel@@ 963
vi@@ 962
ther@@ 958
used 957
sk@@ 956
k, 952
another 951
st 945
own 945
" 944
ed@@ 943
under@@ 943
That 941
ta@@ 939
ther 938
cor@@ 936
wing 936
mar@@ 936
Th@@ 932
e? 931
never 927
produc@@ 924
this. 922
fi@@ 920
he@@ 918
ving 917
enc@@ 914
change 913
start 913
tions 910
bit 909
j@@ 909
came 907
fa@@ 907
ary 905
4@@ 904
bu@@ 903
her@@ 903
ever 901
idea 898
might 898
ly, 897
," 896
whole 895
ang@@ 893
bre@@ 890
inv@@ 889
chang@@ 889
next 888
ance 888
c 885
ty 885
ations 884
How 883
al. 882
al, 882
part 881
ant@@ 879
tion. 879
er. 878
mon@@ 877
day 876
looking 874
hi@@ 873
here, 872
au@@ 868
ity. 867
few 867
ment 866
iti@@ 864
ally, 864
body 862
pri@@ 862
ect 861
w 860
o, 860
ge@@ 856
gro@@ 855
does 854
exp@@ 852
en 851
Because 850
here. 848
old 847
ies 845
ve, 843
world. 842
When 842
ser@@ 839
ding 838
3@@ 834
e-@@ 832
still 829
Now 828
each 827
comes 827
ning 825
gener@@ 823
acc@@ 823
en, 817
ck 817
them. 816
Thank 812
design@@ 812
off 811
ble 810
there. 808
between 804
ice 802
fl@@ 802
sel@@ 798
million 796
ent. 795
way, 793
this, 793
ve. 792
wat@@ 791
gl@@ 790
thought 789
try 789
doesn't 788
our@@ 787
den@@ 786
found 784
der 781
en. 779
et. 777
um 775
tor@@ 773
ey@@ 773
V@@ 773
5@@ 773
tion, 770
time, 769
cap@@ 768
ws 768
ide@@ 768
wanted 767
av@@ 767
said 766
form@@ 766
ity, 765
up@@ 764
ru@@ 761
ite 761
als 760
long 758
ear@@ 755
time. 754
! 753
f 753
est@@ 753
ques@@ 752
ach@@ 751
oc@@ 751
thing. 750
spe@@ 746
gh@@ 746
tu@@ 746
ei@@ 746
Talk 744
important 742
br@@ 739
Y@@ 739
call 739
ans 737
ber@@ 735
id@@ 733
exc@@ 733
b 731
me, 731
always 731
real 731
off@@ 730
may 729
mis@@ 727
7@@ 725
9@@ 722
trying 722
star@@ 722
der@@ 722
und@@ 721
eng@@ 719
et, 719
tic 717
eas@@ 716
an, 715
ves 715
gi@@ 714
pe 714
Subtitles 713
Transcript: 713
sion 713
I'll 711
end@@ 709
sub@@ 709
differ@@ 706
There's 703
ig@@ 701
stor@@ 699
place 698
0@@ 698
x 698
what's 697
low 697
before 694
10 694
working 691
better 690
took 688
'd 688
th. 686
understand 683
ps 682
ent, 682
coming 681
mat@@ 681
real@@ 679
dri@@ 678
plac@@ 675
act 675
ass@@ 674
quite 673
fact, 673
ous@@ 673
ry 670
ligh@@ 670
four 669
These 669
bas@@ 669
e's 668
bi@@ 668
ist 668
bor@@ 664
sm@@ 664
getting 664
you, 663
in. 663
te 662
using 660
live 659
ational 657
high@@ 657
love 656
sen@@ 656
believe 656
ative 656
ell@@ 654
less 654
ue 652
connec@@ 652
way. 651
year 647
other@@ 645
I'd 644
course, 643
id 642
done 640
the@@ 639
ates 638
one. 638
ach 635
dic@@ 634
tal@@ 633
create 632
ven@@ 631
ati@@ 631
us. 628
One 628
work@@ 628
ess. 628
mer@@ 628
point 628
vis@@ 627
some@@ 627
now, 627
ize 626
ain@@ 625
les 625
My 624
cl@@ 624
St@@ 622
pla@@ 620
mark@@ 620
feel 620
making 619
in, 619
son@@ 618
tive 617
world, 616
expl@@ 616
probably 615
mag@@ 614
and, 613
pat@@ 613
spec@@ 612
cal 611
dr@@ 610
sec@@ 610
foo@@ 610
design 609
imp@@ 609
y? 609
ici@@ 608
there, 608
th, 607
ure 607
out. 607
ob@@ 606
ten@@ 606
him 605
story 604
tur@@ 603
too 603
if@@ 603
them, 601
out, 600
har@@ 599
person@@ 599
technology 599
dec@@ 597
water 597
ste@@ 597
6@@ 596
ort 594
every@@ 592
pretty 591
ts. 591
you've 590
oo@@ 589
cr@@ 588
Wh@@ 587
ess, 587
one, 585
ful@@ 584
Americ@@ 583
ight 580
ked 580
over@@ 578
talking 578
iz@@ 578
mus@@ 578
maybe 577
tion@@ 577
w, 576
el 576
ts, 574
We're 574
system 574
let 574
five 572
ture 571
ful 571
tru@@ 570
ef@@ 569
problem 568
become 567
air@@ 561
fri@@ 560
them@@ 560
don@@ 560
poin@@ 559
lar@@ 558
tem@@ 557
poli@@ 557
possi@@ 557
e: 556
light 556
help 555
dro@@ 555
tiv@@ 554
ris@@ 553
he's 553
tro@@ 552
build 552
us, 550
man 549
big@@ 549
ors 549
without 545
best 545
bro@@ 545
is. 544
number 543
everything 542
ge 542
small 542
por@@ 537
cas@@ 537
years, 536
thing, 536
me. 535
means 535
conc@@ 534
ins 534
pas@@ 534
bra@@ 533
wis@@ 532
ities 531
ff@@ 531
Mo@@ 531
lu@@ 531
se, 530
brain 530
kids 529
makes 528
wed 527
50 526
st, 526
20 526
shi@@ 526
... 525
compl@@ 525
o. 524
medi@@ 523
fu@@ 523
contin@@ 522
educ@@ 522
mean, 522
ran@@ 520
ty@@ 519
win@@ 519
can@@ 518
19@@ 517
ast 516
sci@@ 516
olog@@ 515
lat@@ 515
having 515
ill 514
ail@@ 514
half 514
such 513
thinking 512
ence. 511
fil@@ 511
w. 510
se. 510
trans@@ 510
second 509
pi@@ 509
building 509
8@@ 508
across 508
pos@@ 508
interesting 508
set 507
equ@@ 507
environ@@ 506
move 506
question 506
hand@@ 504
children 504
school@@ 504
him@@ 504
ded 503
ds, 503
seen 503
ings 502
All 500
person 500
or, 498
fre@@ 498
play 498
wer@@ 497
anim@@ 497
form 497
ard 495
away 494
happ@@ 494
times 494
du@@ 493
jo@@ 492
ari@@ 492
self 492
ion 491
power 491
flo@@ 490
wn 489
you@@ 489
well 488
ali@@ 488
ask 487
met@@ 486
bri@@ 485
app@@ 485
'll 485
goes 485
ish@@ 485
ong@@ 483
out@@ 483
cu@@ 483
U@@ 482
lea@@ 482
told 481
tel@@ 481
vel@@ 481
ann@@ 481
fer@@ 480
things. 480
de, 480
200@@ 480
saw 480
issu@@ 479
det@@ 479
like, 479
blo@@ 478
progr@@ 478
ets 477
lik@@ 475
She 474
sense 474
ak 474
scienti@@ 474
mach@@ 473
ok@@ 472
sign@@ 471
leg@@ 471
m, 471
spac@@ 471
An@@ 470
ter. 468
New 468
looks 468
hy@@ 467
sor@@ 467
people, 467
Ma@@ 466
ago, 466
ition 466
enough 466
thre@@ 466
ters 465
cell@@ 465
all, 464
For 464
ther, 463
ence, 461
life. 461
technolog@@ 461
aff@@ 461
far@@ 460
an. 460
mas@@ 460
years. 459
happened 459
net@@ 459
perc@@ 458
energy 457
direc@@ 457
eg@@ 457
mov@@ 456
up. 456
proc@@ 455
econom@@ 455
Why 455
Mar@@ 455
mit@@ 454
vic@@ 453
succ@@ 452
de. 452
p. 452
tell@@ 450
prin@@ 450
ju@@ 450
bring 450
tin@@ 450
sure 450
teach@@ 450
vo@@ 449
writ@@ 449
As 449
dep@@ 449
s? 448
mem@@ 448
sts 448
objec@@ 448
social 448
dat@@ 447
Afric@@ 447
up, 446
anything 446
per 446
imag@@ 445
do. 445
fact 445
both 445
coun@@ 445
together 444
ack 444
ment@@ 443
top 442
ept 441
wal@@ 441
hom@@ 440
eff@@ 440
ie 440
wan@@ 440
Al@@ 439
dollars 439
my@@ 438
ones 438
almost 438
In@@ 437
happen@@ 437
e." 437
’@@ 437
left 435
ement 435
20@@ 435
hel@@ 435
money 434
ory 434
billion 434
keep 433
again, 433
allo@@ 433
inc@@ 432
data 432
boo@@ 431
eb@@ 431
cho@@ 431
toge@@ 431
week@@ 431
let's 431
fir@@ 430
und 430
speci@@ 430
simple 429
develop@@ 429
ter, 429
day, 428
5 428
whether 428
think, 428
eh@@ 428
diseas@@ 427
within 427
stre@@ 427
projec@@ 426
living 426
af@@ 425
langu@@ 425
No@@ 424
Ch@@ 424
asked 424
though 424
nam@@ 423
people. 423
looked 422
shar@@ 422
United 422
fol@@ 421
They're 421
six 421
couple 420
ation@@ 419
ers, 419
vers@@ 419
evol@@ 419
sy@@ 418
dar@@ 418
bar@@ 418
global 417
ger@@ 417
r 416
or. 416
bad 415
univers@@ 415
power@@ 415
work. 414
tical 414
line 414
prot@@ 414
single 413
stuff 413
information 411
ood 411
ale 411
much. 411
ough@@ 411
igh@@ 410
gir@@ 410
now. 409
well, 408
side 408
problem@@ 408
partic@@ 408
goo@@ 408
turn 407
belie@@ 407
ie@@ 407
heard 406
ver 406
ult 406
m. 406
appro@@ 405
ges@@ 405
kinds 405
must 404
basically 404
care 404
clo@@ 403
under 402
ile 402
mean 401
ger 400
hard 400
age, 400
Indi@@ 399
ure. 399
Bu@@ 398
space 398
mean@@ 397
ways 396
reason 396
duc@@ 395
bly 395
vie@@ 395
compu@@ 395
piece 394
already 394
rat@@ 394
100 394
tly 393
ong 393
materi@@ 393
oper@@ 393
hum@@ 392
cat@@ 392
gest 392
food 392
p, 392
compan@@ 392
pul@@ 392
bili@@ 391
this@@ 390
chall@@ 390
dig@@ 390
ently 390
selves 389
ability 389
vol@@ 389
sive 389
experim@@ 389
sta@@ 388
ise 387
able. 384
ick@@ 384
ics 384
' 384
stri@@ 384
sup@@ 383
says, 383
il 383
gets 382
des 381
age. 381
Go@@ 381
cur@@ 380
"I 380
ack@@ 380
jec@@ 379
ll@@ 379
learn 378
until 378
wher@@ 378
spir@@ 378
call@@ 378
bir@@ 378
nu@@ 377
pris@@ 377
ward 377
high 377
individu@@ 376
right? 376
enti@@ 376
picture 375
read@@ 375
ital 374
so, 374
today 373
feel@@ 373
ves. 372
ideas 372
nothing 372
ship 372
ad. 371
ic. 371
ther. 370
t? 370
st. 370
far 370
ori@@ 370
hear@@ 369
life, 369
ah@@ 368
dra@@ 368
ven 368
science 367
reas@@ 367
tex@@ 367
biolog@@ 367
possible 367
clas@@ 367
course 366
Ear@@ 366
cli@@ 365
once 365
built 365
ily 365
del@@ 365
computer 365
foc@@ 364
while 364
inst@@ 364
gs 364
sha@@ 364
play@@ 364
mom@@ 364
effec@@ 363
ort@@ 362
taking 362
milli@@ 362
val@@ 361
rather 361
ends 361
fam@@ 361
Africa 360
30 360
stat@@ 360
’s 360
squ@@ 360
ys 359
Ro@@ 359
itu@@ 359
inside 359
happens 359
opportun@@ 358
ouse 358
completely 358
char@@ 358
country 358
hope 358
liter@@ 358
[@@ 358
pr@@ 357
doc@@ 357
che@@ 357
isn't 357
clear 356
ad, 356
school 356
lec@@ 355
young 355
ber 355
standing 355
ds. 355
ch, 354
city 354
experi@@ 354
sing 354
ly. 354
gam@@ 354
re 354
ga@@ 354
at. 353
bur@@ 353
beautiful 353
somebody 352
n. 351
stu@@ 351
dist@@ 351
guy 351
pati@@ 351
lan@@ 350
Then 350
Let's 350
ture. 350
isi@@ 349
ase 349
architec@@ 349
order 349
decided 349
supp@@ 349
kno@@ 349
inf@@ 348
wasn't 348
defin@@ 348
head@@ 348
land@@ 347
ys, 347
ble. 347
att@@ 347
read 347
s: 346
OK, 346
societ@@ 346
ght 345
lots 345
Ye@@ 345
respon@@ 345
everybody 344
room@@ 344
10@@ 344
you'll 344
figure 344
all. 344
n, 343
em 343
lear@@ 343
And, 343
nor@@ 342
centur@@ 342
den 341
since 341
flu@@ 341
cir@@ 341
behavi@@ 341
num@@ 340
discover@@ 340
couldn't 340
exactly 340
engine@@ 339
fr@@ 339
taken 339
put@@ 338
pped 338
hor@@ 338
cop@@ 337
are@@ 337
of@@ 337
cal@@ 336
stud@@ 336
ized 336
future 336
reg@@ 336
human@@ 335
dge 335
countr@@ 335
art 335
ching 335
ers. 335
run 335
ic, 335
build@@ 334
front 334
fo@@ 334
sit@@ 334
business 333
ited 333
"The 333
ented 332
then, 332
cra@@ 332
answer 332
your@@ 331
You@@ 331
commun@@ 331
often 331
pur@@ 330
Here 330
meas@@ 330
do, 330
tl@@ 330
TED@@ 329
stuff@@ 329
what@@ 329
ese 329
ously 328
ath 328
turns 328
women 328
activ@@ 327
land 327
well. 326
organiz@@ 326
hol@@ 326
at, 326
Chin@@ 326
hear 325
dre@@ 325
innov@@ 324
see, 324
knew 324
became 324
ep 323
ace 323
room 323
problems 322
things, 322
fiel@@ 322
large 322
stand@@ 321
open 321
We've 321
grou@@ 320
health 319
takes 319
here's 319
bet@@ 318
ung@@ 318
pleas@@ 318
ir 317
struc@@ 317
ah, 317
ms 317
elec@@ 317
positi@@ 316
cle@@ 316
huge 316
natural 316
ili@@ 316
] 316
ually 315
dom@@ 315
works 315
cent@@ 315
lab@@ 315
sed 315
ick 314
invol@@ 314
American 314
secon@@ 314
perf@@ 314
y-@@ 314
it? 314
someone 314
countries 314
ment. 314
arti@@ 314
fut@@ 313
car 313
vari@@ 313
medic@@ 313
thes@@ 312
2 312
ain 312
kl@@ 312
group 311
tor 311
ture, 311
electri@@ 310
Here's 310
experience 310
back@@ 310
loo@@ 309
moving 309
adv@@ 309
entire 309
trac@@ 309
ately 309
obvi@@ 308
wer 308
relation@@ 308
we'll 308
emo@@ 308
know. 308
gave 307
example, 307
public 307
certain 307
collec@@ 307
inn@@ 307
ub@@ 306
ich 306
model@@ 306
iting 305
ses 305
else 305
ord@@ 305
ment, 304
bel@@ 304
histor@@ 304
beg@@ 304
consum@@ 303
posed 303
wit@@ 303
places 303
ple 302
book 302
ia 302
fro@@ 302
bod@@ 302
turned 301
day. 301
remember 301
've 300
low@@ 300
ty. 300
"Well, 300
ish 300
self-@@ 299
project 298
wonderful 298
00@@ 298
particular 298
shows 297
ago 297
ents, 297
ik@@ 297
ft 297
along 297
based 296
ure, 296
actually, 296
amazing 296
sli@@ 295
consi@@ 295
en't 295
example 295
least 295
wei@@ 295
bab@@ 295
befor@@ 295
work, 295
process 295
created 295
ativ@@ 294
oul@@ 294
diffic@@ 294
cannot 294
contro@@ 294
Is 294
wom@@ 294
today. 294
ty, 294
imagine 293
right. 293
Do 293
matter 293
childr@@ 293
h, 293
very, 293
canc@@ 293
ce, 292
ben@@ 292
video 292
od 292
word 292
thing@@ 292
charac@@ 292
lif@@ 291
says 291
they@@ 291
against 291
saying 291
ine. 291
mu@@ 290
home 290
ke@@ 290
seeing 290
long@@ 289
buy 289
y: 289
led 289
tures 289
atur@@ 289
chem@@ 289
as, 288
clear@@ 288
Gre@@ 288
grow@@ 288
Bo@@ 288
was, 288
mind 288
ents. 287
Z@@ 287
early 287
ys. 287
amount 287
face 286
seven 286
Earth 286
run@@ 285
level@@ 285
ted. 285
seri@@ 285
Nor@@ 285
audi@@ 285
of, 285
rul@@ 285
view 284
days 284
Con@@ 284
worked 284
valu@@ 284
stop 284
maj@@ 284
repres@@ 284
ine, 284
popul@@ 284
mm@@ 284
ely, 283
pec@@ 283
ye@@ 283
interested 283
sion@@ 283
with@@ 282
tions. 282
organ@@ 282
sim@@ 282
third 282
At 282
ched 282
visu@@ 282
name 281
caus@@ 281
os@@ 280
stories 280
ality 280
heart 280
child 280
ves, 279
aver@@ 279
Re@@ 279
vor@@ 279
syn@@ 279
Au@@ 279
thousands 278
self. 278
planet 278
case 278
learned 278
ago. 278
pain@@ 277
rest 277
exampl@@ 277
survi@@ 277
plo@@ 277
Or 277
new@@ 277
ments 276
kill@@ 276
tool@@ 276
state 276
ences 276
known 276
species 276
ce. 276
ations. 276
happen 275
year, 275
physic@@ 275
Ar@@ 275
oil 274
3 274
year. 273
dy 272
recogn@@ 272
tried 272
7 272
Li@@ 272
cont@@ 272
fas@@ 272
sequ@@ 272
jour@@ 272
family 271
ange 271
ever@@ 271
predic@@ 271
amp@@ 271
unch 270
You're 270
ware 269
but@@ 269
s." 269
ally. 269
4 269
mes@@ 269
ute 268
What's 268
fast@@ 268
govern@@ 268
robo@@ 268
fur@@ 268
pp@@ 267
bers 267
moment 267
ties 267
answer@@ 267
50@@ 267
other. 267
wo@@ 266
self, 266
ol 266
famili@@ 266
tho@@ 266
right, 266
job@@ 266
history 266
thought, 266
leave 266
Afri@@ 266
cost 265
6 265
cy@@ 265
communic@@ 265
cro@@ 265
dem@@ 265
ster@@ 265
music 265
curr@@ 264
ze 264
knowle@@ 264
exist@@ 264
als, 264
compassi@@ 264
photograph@@ 264
sum@@ 263
guys 263
incredi@@ 263
ow@@ 263
atic 263
share 263
inten@@ 263
le, 263
vice 262
perhaps 262
today, 262
physi@@ 262
peri@@ 262
wards 262
ists 262
15 261
Just 261
ically 261
months 261
bac@@ 261
nature 261
tern 261
know@@ 260
Not 260
ected 260
fig@@ 260
world@@ 260
tou@@ 260
tot@@ 259
needs 259
terms 259
CA: 259
ance, 259
again. 259
anti@@ 259
bein@@ 259
mother 259
tran@@ 258
Af@@ 258
icro@@ 258
there@@ 258
evi@@ 258
during 257
ular@@ 257
ffer@@ 257
ore 256
tain@@ 256
ath@@ 256
sever@@ 256
ages 256
dollar@@ 256
prac@@ 256
size 256
enter@@ 255
brought 255
nec@@ 255
ular 255
y's 255
say@@ 254
given 254
aly@@ 254
abili@@ 254
able, 254
To 254
model 254
health@@ 254
began 253
righ@@ 253
ness 253
ind 253
ens 253
men 253
eight 252
wr@@ 252
le. 252
inclu@@ 252
Som@@ 252
government 252
zer@@ 252
40 252
crit@@ 252
mone@@ 252
uni@@ 252
dies 252
God 252
full 251
though@@ 251
People 251
are, 250
't 250
happening 250
kid@@ 250
vill@@ 249
importan@@ 249
carb@@ 249
clos@@ 249
spend 249
Some 249
ply 249
ref@@ 249
psych@@ 249
Su@@ 248
wonder@@ 248
bed 248
oce@@ 248
,@@ 248
Di@@ 247
00 247
tural 247
provi@@ 247
gives 247
company 247
ous. 247
dow@@ 247
close 247
whatever 247
stra@@ 246
ton@@ 246
bin@@ 246
ign@@ 246
d-@@ 246
starting 246
lives 246
molec@@ 246
universe 246
true 245
ific@@ 245
Ha@@ 245
fortun@@ 245
scre@@ 245
sometimes 245
busin@@ 245
aroun@@ 244
atten@@ 244
animals 244
certain@@ 244
spo@@ 244
ner@@ 244
shap@@ 244
Par@@ 243
mental 243
ey 243
mathemati@@ 243
study 243
tions, 242
r. 242
extre@@ 241
tau@@ 241
ox@@ 241
fully 241
son 241
citi@@ 241
Un@@ 241
go. 241
camer@@ 241
happy 241
middle 240
S 240
ations, 240
demo@@ 240
instead 240
als. 240
spent 240
cial 240
think@@ 240
everyone 240
cel@@ 239
ought 239
coll@@ 239
technologi@@ 239
won't 239
liz@@ 239
year-@@ 239
outside 239
simply 239
dy@@ 239
ow 238
passi@@ 238
ump@@ 238
to, 238
fun@@ 238
really, 238
as. 238
Le@@ 238
ted, 237
usi@@ 237
parts 237
minut@@ 237
Every@@ 237
u 237
ell 236
row 236
down. 236
bloo@@ 236
nat@@ 236
peopl@@ 236
civi@@ 236
grow 235
that? 235
India 235
intelligen@@ 235
ilo@@ 235
ines 235
get@@ 235
piec@@ 235
wouldn't 235
happin@@ 235
He's 235
es? 234
som@@ 234
key 234
ders 234
walk 234
ros@@ 234
common 234
increas@@ 234
cer@@ 233
friend@@ 233
t-@@ 233
through@@ 233
func@@ 233
tional 233
Loo@@ 233
hundre@@ 233
appear@@ 233
vir@@ 233
fail@@ 233
let@@ 232
tes@@ 232
deal 232
bacter@@ 232
serv@@ 231
they've 231
test 231
ution@@ 231
hours 231
follo@@ 231
Ste@@ 231
thank 230
talked 230
economic 230
Sp@@ 230
black 230
air 230
abo@@ 230
En@@ 230
mi@@ 229
cam@@ 229
sto@@ 229
descri@@ 229
ond 229
beginning 229
pho@@ 229
typ@@ 229
Bi@@ 229
energ@@ 228
ens@@ 228
ons. 228
o-@@ 228
dru@@ 228
inform@@ 228
pping 228
yet 228
hon@@ 227
unds 227
be, 227
needed 227
allow 227
research 227
auth@@ 227
cri@@ 227
rate 226
hab@@ 226
stain@@ 226
sug@@ 226
aper 226
impro@@ 226
industr@@ 226
cle 226
problem. 226
feet 226
og@@ 226
Po@@ 226
ended 226
sound 226
men@@ 225
tici@@ 225
system. 225
community 225
pose 225
gone 225
cover 225
ocean 225
moun@@ 225
dence 225
To@@ 224
ink 224
OK. 223
gar@@ 223
forc@@ 223
tan@@ 223
radi@@ 223
phone 223
ki@@ 223
tice 223
game 223
ay 222
thin@@ 222
Can 222
diti@@ 222
train@@ 222
tw@@ 222
structure 222
world's 222
aliz@@ 222
was@@ 222
0 222
hand 222
interest@@ 221
countri@@ 221
imagin@@ 221
Our 221
neigh@@ 221
free 221
resul@@ 221
are. 221
cks 220
tern@@ 220
water. 220
scal@@ 220
ies, 220
area 220
war 220
essenti@@ 220
help@@ 220
fish 220
climate 219
news 219
techn@@ 219
ts@@ 219
head 219
sitting 219
religi@@ 219
realized 219
prof@@ 218
simpl@@ 218
non-@@ 218
woman 218
well@@ 218
conf@@ 218
Fran@@ 218
wrong 217
pay 217
who's 217
market 217
absolutely 217
four@@ 217
ch. 217
super@@ 217
ster 217
lli@@ 217
actu@@ 217
achie@@ 217
nigh@@ 216
tom 216
rep@@ 216
responsi@@ 216
Stat@@ 216
great@@ 216
am, 216
seems 216
action 216
ual 216
galax@@ 216
ith 215
comm@@ 215
miles 215
sud@@ 215
U.S. 215
tors 215
level 215
wrote 215
behind 215
extra@@ 215
centr@@ 215
job 215
pu@@ 214
cut 214
ns 214
bott@@ 214
ordinary 214
priv@@ 214
los@@ 214
He@@ 214
story. 214
ams 214
surface 214
iden@@ 214
y." 214
met 214
simil@@ 214
developing 213
eri@@ 213
minutes 213
We@@ 213
uses 213
control 213
fic 213
pan@@ 213
dres@@ 212
ten 212
construc@@ 212
chan@@ 212
ver, 212
system@@ 212
fundament@@ 212
cin@@ 212
am. 212
hold 212
ature 211
longer 211
students 211
sam@@ 211
tain 211
bes@@ 211
agre@@ 211
cell 211
On 211
incredible 211
"What 211
back, 211
ton 211
terri@@ 211
dom 211
ons, 211
later, 210
powerful 210
ek 210
mul@@ 210
ve@@ 210
down, 210
write 210
hat@@ 210
myself 210
B: 210
ome 209
force 209
resourc@@ 209
ern@@ 209
viol@@ 209
felt 209
Ex@@ 208
gen 208
ate, 208
hop@@ 208
az@@ 208
Righ@@ 208
dn@@ 208
amm@@ 208
mal 208
cover@@ 208
ire 207
potenti@@ 207
Ho@@ 207
os 207
Ge@@ 207
ar, 207
South 207
Sh@@ 206
soft@@ 206
population 206
9 206
hour@@ 206
devel@@ 205
tt@@ 205
199@@ 205
Se@@ 204
ber, 204
ank@@ 204
soci@@ 204
enn@@ 203
8 202
who@@ 202
regi@@ 202
ble@@ 202
Car@@ 201
On@@ 201
ate. 201
hal@@ 201
bio@@ 201
York 201
lim@@ 200
18@@ 200
ology 199
ure@@ 199
ater 199
to. 198
g, 198
Mon@@ 197
Pro@@ 197
be. 197
ause, 197
itive 197
ord 197
poll@@ 196
fing@@ 196
cour@@ 195
institu@@ 195
Ne@@ 195
Ac@@ 195
ex 194
web@@ 194
tom@@ 193
origin@@ 193
eu@@ 193
Internet 192
e; 191
ves@@ 191
produ@@ 191
intern@@ 191
Jap@@ 191
tn@@ 190
ene@@ 190
sion. 190
bring@@ 190
sex@@ 190
ogra@@ 190
ban@@ 190
mal@@ 190
dam@@ 189
that@@ 189
transform@@ 189
ll 188
sch@@ 188
kin@@ 188
eth@@ 188
ches 188
ild@@ 188
ling 188
pen@@ 188
mak@@ 187
systems 187
ls 187
eting 187
bal@@ 187
!" 186
cis@@ 186
op 186
re, 186
stand 186
25 186
om 186
Be@@ 185
thous@@ 185
oll@@ 185
anger@@ 185
De@@ 184
urb@@ 184
yo@@ 184
on't 184
World 184
dd@@ 184
fe 183
It@@ 183
oun@@ 182
Fir@@ 181
dern 181
Eu@@ 181
tend 181
re. 181
rop@@ 180
Man@@ 180
ier@@ 179
vide@@ 179
neur@@ 179
system, 178
tit@@ 178
ge, 177
clim@@ 177
industri@@ 177
hr@@ 176
t: 176
ource 175
60 175
billi@@ 175
h. 175
Brit@@ 175
mosp@@ 175
sun@@ 175
D 175
ould 175
i, 175
mil@@ 174
sion, 174
month@@ 174
ution 173
ame 173
spre@@ 173
virtu@@ 173
sens@@ 172
und, 172
ust 172
AID@@ 171
enor@@ 171
U.@@ 171
evolution 171
ph 170
ek@@ 170
zz@@ 169
will@@ 169
log@@ 169
end, 169
theor@@ 169
um. 168
import@@ 168
resear@@ 168
DNA 168
So@@ 167
ash@@ 167
mir@@ 167
30@@ 167
imm@@ 167
d? 167
rip@@ 167
ah. 167
sl@@ 167
der, 166
ator 166
organis@@ 166
ba@@ 166
ign 165
bec@@ 165
lose 165
Har@@ 165
Chris 164
ete 164
500 164
enge 164
dynam@@ 164
sten@@ 164
ging 164
abl@@ 163
oh@@ 163
ilit@@ 163
deci@@ 163
resp@@ 162
200 162
site 162
ge. 161
Intern@@ 161
ken 161
12 161
da, 161
sat@@ 161
sing@@ 161
60@@ 160
Wel@@ 160
las@@ 160
pol@@ 160
mit 159
und. 159
wir@@ 158
ision 158
tradition@@ 158
unter@@ 158
Ta@@ 158
1 157
Mus@@ 157
ybe 157
ole 157
soph@@ 156
fall@@ 156
"N@@ 156
ck. 156
bom@@ 155
ein@@ 155
die 155
Col@@ 155
For@@ 154
ier 154
and. 154
/@@ 154
beh@@ 154
fes@@ 154
Me@@ 153
beauti@@ 153
Bra@@ 153
ins@@ 153
woo@@ 153
el, 153
st-@@ 153
chil@@ 153
sin@@ 152
S: 152
phi@@ 152
18 151
g. 151
erg@@ 151
studi@@ 150
her, 150
sten 149
Christ@@ 149
um, 149
Ju@@ 149
hund@@ 148
buil@@ 148
dimension@@ 148
Char@@ 147
rup@@ 147
Co@@ 147
mechan@@ 147
mer 146
Tim@@ 146
China 146
a-@@ 146
im 146
H: 146
fle@@ 145
Do@@ 145
autom@@ 145
Ab@@ 145
econ@@ 145
also, 145
ist, 145
Mor@@ 145
La@@ 145
nur@@ 145
remem@@ 144
fantast@@ 144
ator@@ 144
Englis@@ 144
stru@@ 144
fall 144
ass 143
ate@@ 143
glob@@ 143
ank 143
"Oh, 143
chi@@ 143
gel@@ 143
X@@ 143
ade 142
top@@ 142
ause 142
Ph@@ 142
amaz@@ 142
incre@@ 142
der. 142
whe@@ 141
They@@ 141
fron@@ 141
need@@ 141
80 141
ut 140
stron@@ 140
Rich@@ 140
dition 140
ough 140
man, 140
Wes@@ 140
Okay, 140
cool@@ 139
beau@@ 139
OK? 139
David 138
strum@@ 138
z 138
Ver@@ 138
Yor@@ 137
lad@@ 137
dies@@ 137
sage 137
Europ@@ 137
gent@@ 137
Dar@@ 137
Jo@@ 136
C 136
Bro@@ 136
etr@@ 136
atist@@ 135
ck, 135
seem@@ 135
pedi@@ 135
Oka@@ 135
alis@@ 134
Rus@@ 134
100@@ 134
un, 134
photogra@@ 134
Mc@@ 134
"A@@ 133
dition@@ 133
bit@@ 133
tten 133
rit@@ 133
Fr@@ 133
ax@@ 133
err@@ 133
n't 132
on-@@ 132
ste 132
fast 132
Pau@@ 132
minist@@ 131
198@@ 131
Oh, 131
Wi@@ 131
wel@@ 131
Is@@ 131
lob@@ 131
Wor@@ 130
Google 130
l, 129
spr@@ 129
ni@@ 129
sag@@ 129
Nigeri@@ 128
T 128
ollar 128
gri@@ 128
anz@@ 128
Jam@@ 128
pub@@ 127
bus@@ 127
publi@@ 127
norm@@ 127
Or@@ 127
neg@@ 126
ft, 126
end. 126
tun@@ 126
hu@@ 126
Her@@ 126
orig@@ 126
heal@@ 126
ourc@@ 125
A, 125
gum@@ 125
year@@ 124
tes 124
illi@@ 124
tif@@ 124
ordin@@ 124
Univers@@ 124
War@@ 124
ft. 123
stan@@ 123
Ira@@ 123
Isl@@ 122
el. 122
Bar@@ 122
fund@@ 121
arb@@ 120
ner 120
Lon@@ 120
ist. 119
te, 119
Qu@@ 119
ready 118
11 118
Ger@@ 118
Br@@ 118
hei@@ 118
rise 118
Lo@@ 117
V 117
HIV@@ 117
rom 117
mp@@ 117
HIV 117
enh@@ 117
appe@@ 117
inspi@@ 116
197@@ 116
rich@@ 116
"W@@ 116
Ken@@ 116
la 116
CO@@ 115
ett@@ 115
aliforni@@ 115
exper@@ 115
eter 115
ales 115
M: 115
1,@@ 114
AS@@ 114
Vi@@ 114
da 114
ein 114
John 113
inves@@ 113
lis@@ 113
pra@@ 113
ned 113
plat@@ 113
her. 113
Per@@ 113
atter@@ 113
ero@@ 113
agno@@ 113
lau@@ 112
dest 112
Ob@@ 112
300 111
A. 111
Gu@@ 111
ern 110
dau@@ 110
beginn@@ 110
spar@@ 110
unk@@ 110
trag@@ 110
elli@@ 109
dimen@@ 109
lon@@ 109
ich, 109
fel@@ 109
ituation 108
Mich@@ 108
t." 108
Inter@@ 108
Sch@@ 108
thir@@ 107
ell, 107
vel 106
Eng@@ 106
omm@@ 106
At@@ 105
G: 105
eig@@ 105
tig@@ 105
ma 105
ami@@ 105
Was@@ 104
zen 104
gan@@ 104
Nat@@ 104
neu@@ 104
ert 104
redu@@ 103
bert 103
interes@@ 103
Si@@ 103
hing@@ 102
fer 102
mut@@ 102
Lu@@ 102
en? 102
aller 101
so. 101
Ri@@ 101
natur@@ 101
ouldn't 100
Gr@@ 100
s-@@ 100
Ander@@ 99
Mal@@ 99
je@@ 99
Ein@@ 99
ang 98
Je@@ 98
bs 97
frag@@ 97
emp@@ 97
Wal@@ 97
ron@@ 97
Joh@@ 96
q@@ 96
wo 95
ands 95
ilom@@ 95
net 95
probab@@ 95
Mars 94
outh 94
idd@@ 93
S. 92
Fin@@ 92
$@@ 91
verse 91
dn't 91
"S@@ 91
eds 91
Bus@@ 90
ur 90
ft@@ 90
Bas@@ 89
thei@@ 89
ah 89
iddle 89
"H@@ 88
Fo@@ 88
na@@ 88
An 88
Pri@@ 87
Gal@@ 87
umin@@ 87
Bri@@ 87
Res@@ 87
Lin@@ 87
volution 86
Kor@@ 86
absol@@ 85
P 85
Gen@@ 84
litt@@ 84
zi@@ 84
en-@@ 84
self@@ 83
cou@@ 83
wes@@ 83
mel@@ 83
war. 83
gn@@ 83
f, 82
eil@@ 82
Bec@@ 81
K 81
ute, 81
Ra@@ 81
Gi@@ 81
ker@@ 81
ink@@ 81
versu@@ 80
ld 80
nex@@ 79
Min@@ 79
han@@ 78
ander@@ 78
1. 78
cogn@@ 78
Mil@@ 78
cc@@ 77
sai@@ 77
A: 77
ene 77
ker 77
Vir@@ 76
dent@@ 76
rie@@ 76
er: 76
mod@@ 75
raft 75
Wo@@ 75
fort@@ 75
DN@@ 74
complet@@ 74
]@@ 74
O 73
not@@ 73
kn@@ 73
urch@@ 72
Hel@@ 71
ans@@ 71
Da@@ 71
dur@@ 71
-S@@ 71
ere 71
Gol@@ 71
Dis@@ 70
ule 70
ler 70
ebo@@ 69
uns 69
Sy@@ 69
Fre@@ 69
iel@@ 69
f. 68
ool@@ 68
Hy@@ 68
tens 67
ull@@ 67
Sin@@ 66
org@@ 66
sau@@ 66
Sk@@ 65
Sa@@ 65
war, 65
te. 64
Web@@ 64
ok 63
ine@@ 63
utes 63
amoun@@ 62
What@@ 62
upp@@ 62
den, 62
ross 62
vor 62
Pr@@ 61
Gener@@ 61
moder@@ 61
gh 61
fal@@ 61
tel 60
hin@@ 60
Te@@ 59
kes 59
indi@@ 59
Bl@@ 59
tast@@ 59
Chr@@ 58
B 58
ech@@ 58
again@@ 58
seh@@ 58
Mu@@ 58
stead 58
Ti@@ 57
ne 57
ten, 57
Institu@@ 57
wen@@ 57
Ant@@ 57
Mis@@ 57
Fl@@ 56
ung 56
E 56
Tit@@ 56
zo@@ 55
ob 55
Sol@@ 55
nov@@ 55
Q@@ 55
q 55
Dan@@ 55
Kar@@ 55
..@@ 54
X 54
enz@@ 54
Mat@@ 54
Num@@ 54
ild 54
falls 53
entr@@ 53
bt 53
Gra@@ 53
mess@@ 53
avi@@ 52
Mag@@ 52
Video@@ 52
Tra@@ 51
El@@ 51
mol@@ 51
ich@@ 51
Sti@@ 51
Ther@@ 51
will, 51
zes 51
Dem@@ 50
gar 50
Tr@@ 50
Im@@ 50
worl@@ 50
US@@ 49
perha@@ 49
eing 49
Ko@@ 49
ums 49
gang 49
Stu@@ 49
eck@@ 48
gib@@ 48
men, 48
Ber@@ 48
Gro@@ 48
den. 48
Bel@@ 48
exam@@ 47
dor@@ 47
Des@@ 47
M 46
enth@@ 46
ergi@@ 46
R 46
bel 46
vern@@ 45
somebo@@ 45
aten 45
ologi@@ 45
ool 45
uss 44
eit@@ 44
sei@@ 44
Den@@ 44
Mol@@ 44
?@@ 43
&@@ 43
Ru@@ 43
men. 43
My@@ 43
Gl@@ 43
tag@@ 43
:@@ 43
uns@@ 43
Pe@@ 42
andel@@ 42
thr@@ 42
nei@@ 41
iet 41
scrip@@ 41
Ty@@ 41
;@@ 41
spi@@ 41
aus@@ 41
ander 41
Also, 40
Techn@@ 40
verb@@ 40
Lab@@ 40
Far@@ 40
hier@@ 40
The@@ 40
Was 40
ound 40
does@@ 40
gen, 39
Sor@@ 39
Win@@ 39
Medi@@ 39
archit@@ 39
L 39
rank@@ 39
sen 39
alt 39
G 39
lei@@ 39
N 39
bar 38
z, 38
Mas@@ 38
Ever@@ 38
- 37
All@@ 37
aller@@ 37
fan@@ 37
v 37
rist@@ 36
ung, 36
Mom@@ 36
erk@@ 35
hig@@ 35
dig 35
ysi@@ 35
amer@@ 35
Kat@@ 35
diff@@ 35
ten. 35
Son@@ 34
betwe@@ 34
immer@@ 34
cher 34
ein, 34
ert. 34
hil@@ 33
en: 33
alien 33
Design@@ 33
les@@ 33
ID@@ 33
bil@@ 32
Bet@@ 32
lie@@ 32
Sau@@ 32
Arm@@ 32
Design 32
ler@@ 32
die, 32
[ 32
chen 31
Comp@@ 31
Pl@@ 31
ka@@ 31
kt@@ 31
genu@@ 31
Sel@@ 31
Tel@@ 31
ig 30
gen. 30
Spe@@ 30
nis@@ 30
lung 30
Kon@@ 30
opp@@ 30
Met@@ 30
zu@@ 30
gros@@ 30
aun@@ 30
Robo@@ 30
Kur@@ 29
Art 29
trau@@ 29
reck@@ 29
eil 29
Inst@@ 28
Ku@@ 28
hn@@ 28
hist@@ 28
Spa@@ 28
ding@@ 28
wich@@ 28
ortun@@ 28
exac@@ 27
ff 27
ou 27
ett 27
Bab@@ 27
Tran@@ 26
Tro@@ 26
F 26
Organ@@ 26
Natur@@ 26
Archit@@ 26
H 26
Str@@ 26
gel 26
inner@@ 25
began@@ 25
au 25
thou@@ 25
togra@@ 25
eins 25
isch@@ 25
Nu@@ 25
Es@@ 25
ivers@@ 25
tty 25
Mathemati@@ 25
ung. 24
Ni@@ 24
jung@@ 24
til 24
Mark@@ 24
tz@@ 24
Man 24
Kl@@ 24
viron@@ 24
onder@@ 24
rei@@ 24
Sta@@ 23
sel 23
ehr@@ 23
Y 23
Plan@@ 23
're 23
ko@@ 22
ats@@ 22
Davi@@ 22
iel 22
Also 22
kar@@ 21
Q 21
Indu@@ 21
wa 21
Tem@@ 21
Wis@@ 21
ig, 20
Rel@@ 20
en." 20
eller 20
polit@@ 20
Bil@@ 20
sych@@ 20
Beh@@ 20
bis@@ 20
agen 20
HI@@ 20
!@@ 20
System@@ 20
Kin@@ 20
Mit@@ 20
Aut@@ 19
000 19
é@@ 19
normal@@ 19
Spr@@ 19
enk@@ 19
et's 19
Fel@@ 19
alk 19
elt 19
z. 18
Peo@@ 18
Dor@@ 18
Inform@@ 18
nd 18
telli@@ 18
Sub@@ 18
% 18
+ 18
Ur@@ 18
Physi@@ 17
Dat@@ 17
ein. 17
Ide@@ 17
ann 17
U 17
Energ@@ 17
olo@@ 17
find@@ 17
telligen@@ 17
ert, 17
te: 16
Prin@@ 16
Hei@@ 16
flus@@ 16
ser 16
Milli@@ 16
ze@@ 16
best@@ 16
) 16
Z 16
ender 16
Pati@@ 16
r, 16
ih@@ 16
Fing@@ 16
du 16
hat, 15
Bei@@ 15
such@@ 15
stell@@ 15
Kan@@ 15
Hand@@ 15
Neu@@ 15
Innov@@ 15
ache 15
Pub@@ 15
Fol@@ 15
/ 15
alt@@ 15
vor, 15
Poli@@ 14
hat 14
gab@@ 14
Goog@@ 14
eit 14
enn 14
ften 14
indu@@ 14
Leb@@ 13
W 13
rech@@ 13
ab 13
Kr@@ 13
Ern@@ 13
sten, 13
bin 13
aus 13
Wei@@ 13
chn@@ 13
iger 13
titles 13
anders 13
ament@@ 12
Fu@@ 12
uns, 12
Lei@@ 12
System 12
kan@@ 12
ja 12
Progr@@ 12
von 12
elle 12
J 12
Plat@@ 11
Wir@@ 11
amen 11
lag@@ 11
gens 11
I'@@ 11
lich@@ 11
mei@@ 11
OK@@ 11
#@@ 11
Hin@@ 11
Ang@@ 11
Studi@@ 11
geb@@ 11
chen. 11
Zi@@ 11
bli@@ 11
offen@@ 10
Fil@@ 10
del 10
en; 10
at's 10
nis 10
ations@@ 10
urs@@ 10
nie 10
Person@@ 10
nich@@ 10
Kap@@ 10
wick@@ 10
Fahr@@ 10
dab@@ 10
é 10
Reg@@ 10
Fort@@ 10
en?" 9
Er@@ 9
– 9
ste, 9
Hil@@ 9
riff@@ 9
tier@@ 9
ab. 9
á@@ 9
das@@ 9
absolut@@ 9
dan@@ 9
Atom@@ 9
gut 9
Mut@@ 9
— 9
sen, 8
bare 8
pf@@ 8
Pap@@ 8
chen, 8
". 8
itz@@ 8
tenti@@ 8
Vide@@ 8
TE@@ 8
lier@@ 8
USA 8
Gel@@ 8
ollar@@ 8
Kun@@ 8
Stand@@ 8
ries@@ 8
uch@@ 8
ö@@ 8
Flu@@ 8
weil 7
illion 7
ern, 7
rier@@ 7
Exper@@ 7
Computer@@ 7
ange@@ 7
zur@@ 7
Bes@@ 7
Experim@@ 7
Dam@@ 7
Fam@@ 7
j 7
Hoff@@ 7
Galax@@ 7
bis 7
blem@@ 7
kon@@ 6
dung 6
gend 6
liche 6
zin@@ 6
mal, 6
Stra@@ 6
zwei@@ 6
ann, 6
sch 6
Land@@ 6
das, 6
hat. 6
aut 6
Nach@@ 6
certa@@ 6
Sie@@ 6
Beg@@ 6
Proz@@ 6
omp@@ 6
hl@@ 6
Schul@@ 6
Rau@@ 6
Mann 6
wollen 6
ó 6
los 6
@@@ 6
deck@@ 6
ist: 6
unter 6
Kol@@ 6
Compu@@ 5
Art, 5
ù 5
igi@@ 5
Film 5
che 5
zeit@@ 5
Kind 5
je 5
Tier@@ 5
Fall 5
ende 5
Fern@@ 5
Metho@@ 5
pro 5
das 5
sen. 5
erst@@ 5
eist@@ 5
Sek@@ 5
leb@@ 5
zent@@ 5
lich 5
Wer@@ 5
acht 5
ben 4
ù@@ 4
Kre@@ 4
(@@ 4
ik 4
+@@ 4
Problem@@ 4
ñ@@ 4
Materi@@ 4
Land 4
Sach@@ 4
Computer 4
Got@@ 4
í@@ 4
einer 4
Dollar 4
chit@@ 4
eich@@ 4
heit, 4
Amer@@ 4
Zu@@ 4
sie 4
Eig@@ 4
zu 4
Sich@@ 4
Jung@@ 4
è@@ 4
bald 4
erz@@ 4
ã@@ 4
uter 4
Jah@@ 4
Gru@@ 4
tige 3
asch@@ 3
tet@@ 3
gend@@ 3
Technologi@@ 3
nun 3
fern@@ 3
Bau@@ 3
Mod@@ 3
etz@@ 3
glau@@ 3
ern. 3
gest@@ 3
mus 3
dir 3
bau@@ 3
dem 3
cken 3
sein@@ 3
sein, 3
geh@@ 3
ente 3
heit. 3
ó@@ 3
Ak@@ 3
schen 3
Koh@@ 3
lang@@ 3
aus. 3
sam 3
Organis@@ 3
Auto 3
Zeit@@ 3
sie. 3
ü@@ 3
auf@@ 3
Zei@@ 3
uten 3
^@@ 3
Gegen@@ 3
Hand 3
tun 3
tik@@ 3
ahl@@ 3
rieb@@ 3
ien 3
eten 2
Arb@@ 2
â@@ 2
Form 2
ï@@ 2
enz 2
spiel 2
vier 2
leist@@ 2
Frag@@ 2
Das 2
Rei@@ 2
ich. 2
=@@ 2
Um 2
“@@ 2
” 2
Haus@@ 2
brach@@ 2
utzen 2
oren 2
Spiel@@ 2
–@@ 2
Tag@@ 2
mir 2
rag 2
ehr 2
heit 2
chst@@ 2
* 2
É@@ 2
für 2
recht 2
eine 2
Them@@ 2
hen 2
fen. 2
fen 2
nach@@ 2
Frau@@ 2
", 2
Ster@@ 2
kun@@ 2
gut. 2
alles 2
Mein@@ 2
.000 1
Problem 1
ć 1
etz 1
Kul@@ 1
hr 1
wollen, 1
doch 1
ffen 1
einig@@ 1
utz@@ 1
lle 1
ei 1
Dollar@@ 1
Tag 1
Zeu@@ 1
Produ@@ 1
Kom@@ 1
rote 1
Geb@@ 1
lang 1
nah@@ 1
cke 1
"Ich 1
habe 1
hin 1
ú@@ 1
enst@@ 1
schl@@ 1
einz@@ 1
Person 1
gef@@ 1
hier, 1
auf, 1
Schl@@ 1
lek@@ 1
Aus@@ 1
alen 1
Las@@ 1
schn@@ 1
º@@ 1
Bli@@ 1
egen@@ 1
ten: 1
’ 1
…@@ 1
ganz 1
sein 1
kenn@@ 1
ös@@ 1
ische 1
iges 1
wird 1
fahr@@ 1
weise 1
tlich 1
gesch@@ 1
ütz@@ 1
welche 1
Kunst 1
durch 1
spezi@@ 1
isch 1
äum@@ 1
äs@@ 1
keiten 1
meinen 1
mensch@@ 1
neue 1
Wirk@@ 1
ungen 1
möglich 1
Ja, 1
Herz@@ 1
Gedan@@ 1
Kop@@ 1
schle@@ 1
aber 1
ò@@ 1
à@@ 1
ê@@ 1
Ding@@ 1
heit@@ 1
izi@@ 1
aus, 1
√@@ 1
±@@ 1
vier@@ 1
%@@ 1
—@@ 1
fen, 1
ungs@@ 1
Lieb@@ 1
Da 1
kul@@ 1
ja, 1
sei 1
Eben@@ 1
olle 1
sche 1
£@@ 1
gab 1
# 1
rach@@ 1
auf 1
ā@@ 1
vidu@@ 1
ç@@ 1
Ç@@ 1
ikan@@ 1
mir, 1
eher 1
ön@@ 1
weg@@ 1
Gem@@ 1
igen 1
Lie@@ 1
ä@@ 1
immer 1
tet 1
blem 1
seine 1
ör@@ 1
Kinder@@ 1
bei@@ 1
dass 1
= 1
zel@@ 1
bei 1
aub@@ 1
frei@@ 1
schi@@ 1
asser 1
tik 1
à 1
anf@@ 1
icht@@ 1
